/*
 * Copyright (c) 2025 EdgeImpulse Inc.
 *
 * Generated by Edge Impulse and licensed under the applicable Edge Impulse
 * Terms of Service. Community and Professional Terms of Service
 * (https://edgeimpulse.com/legal/terms-of-service) or Enterprise Terms of
 * Service (https://edgeimpulse.com/legal/enterprise-terms-of-service),
 * according to your product plan subscription (the “License”).
 *
 * This software, documentation and other associated files (collectively referred
 * to as the “Software”) is a single SDK variation generated by the Edge Impulse
 * platform and requires an active paid Edge Impulse subscription to use this
 * Software for any purpose.
 *
 * You may NOT use this Software unless you have an active Edge Impulse subscription
 * that meets the eligibility requirements for the applicable License, subject to
 * your full and continued compliance with the terms and conditions of the License,
 * including without limitation any usage restrictions under the applicable License.
 *
 * If you do not have an active Edge Impulse product plan subscription, or if use
 * of this Software exceeds the usage limitations of your Edge Impulse product plan
 * subscription, you are not permitted to use this Software and must immediately
 * delete and erase all copies of this Software within your control or possession.
 * Edge Impulse reserves all rights and remedies available to enforce its rights.
 *
 * Unless required by applicable law or agreed to in writing, the Software is
 * distributed on an "AS IS" BASIS, WITHOUT WARRANTIES OR CONDITIONS OF ANY KIND,
 * either express or implied. See the License for the specific language governing
 * permissions, disclaimers and limitations under the License.
 */

#ifndef _EI_CLASSIFIER_TFLITE_LEARN_812653_12_H_
#define _EI_CLASSIFIER_TFLITE_LEARN_812653_12_H_

#define EI_CLASSIFIER_TFLITE_LEARN_812653_12_ARENA_SIZE     102726
const size_t tflite_learn_812653_12_arena_size = 102726;

#if defined __GNUC__
#define ALIGN(X) __attribute__((aligned(X)))
#elif defined _MSC_VER
#define ALIGN(X) __declspec(align(X))
#elif defined __TASKING__
#define ALIGN(X) __align(X)
#else
#define ALIGN(X)
#endif

#if defined(EI_MODEL_SECTION) && (defined(__GNUC__) || defined(__clang__))
#define STRINGIZE(x) #x
#define STRINGIZE_VALUE_OF(x) STRINGIZE(x)
#define MODEL_SECTION(X) __attribute__((section(STRINGIZE_VALUE_OF(X))))
#else
#define MODEL_SECTION(X)
#endif


MODEL_SECTION(EI_MODEL_SECTION) ALIGN(16) const unsigned char tflite_learn_812653_12[] = {
  0x1c, 0x00, 0x00, 0x00, 0x54, 0x46, 0x4c, 0x33, 0x14, 0x00, 0x20, 0x00,
  0x1c, 0x00, 0x18, 0x00, 0x14, 0x00, 0x10, 0x00, 0x0c, 0x00, 0x00, 0x00,
  0x08, 0x00, 0x04, 0x00, 0x14, 0x00, 0x00, 0x00, 0x1c, 0x00, 0x00, 0x00,
  0x8c, 0x00, 0x00, 0x00, 0xdc, 0x00, 0x00, 0x00, 0xb0, 0x53, 0x00, 0x00,
  0xc0, 0x53, 0x00, 0x00, 0xbc, 0x7d, 0x01, 0x00, 0x03, 0x00, 0x00, 0x00,
  0x01, 0x00, 0x00, 0x00, 0x04, 0x00, 0x00, 0x00, 0xae, 0x55, 0xff, 0xff,
  0x0c, 0x00, 0x00, 0x00, 0x1c, 0x00, 0x00, 0x00, 0x3c, 0x00, 0x00, 0x00,
  0x0f, 0x00, 0x00, 0x00, 0x73, 0x65, 0x72, 0x76, 0x69, 0x6e, 0x67, 0x5f,
  0x64, 0x65, 0x66, 0x61, 0x75, 0x6c, 0x74, 0x00, 0x01, 0x00, 0x00, 0x00,
  0x04, 0x00, 0x00, 0x00, 0x9c, 0x57, 0xff, 0xff, 0xfb, 0x01, 0x00, 0x00,
  0x04, 0x00, 0x00, 0x00, 0x08, 0x00, 0x00, 0x00, 0x6f, 0x75, 0x74, 0x70,
  0x75, 0x74, 0x5f, 0x30, 0x00, 0x00, 0x00, 0x00, 0x01, 0x00, 0x00, 0x00,
  0x04, 0x00, 0x00, 0x00, 0x7a, 0x56, 0xff, 0xff, 0x04, 0x00, 0x00, 0x00,
  0x0c, 0x00, 0x00, 0x00, 0x6b, 0x65, 0x72, 0x61, 0x73, 0x5f, 0x74, 0x65,
  0x6e, 0x73, 0x6f, 0x72, 0x00, 0x00, 0x00, 0x00, 0x02, 0x00, 0x00, 0x00,
  0x2c, 0x00, 0x00, 0x00, 0x04, 0x00, 0x00, 0x00, 0xe8, 0x57, 0xff, 0xff,
  0xfe, 0x01, 0x00, 0x00, 0x04, 0x00, 0x00, 0x00, 0x13, 0x00, 0x00, 0x00,
  0x43, 0x4f, 0x4e, 0x56, 0x45, 0x52, 0x53, 0x49, 0x4f, 0x4e, 0x5f, 0x4d,
  0x45, 0x54, 0x41, 0x44, 0x41, 0x54, 0x41, 0x00, 0x0c, 0x58, 0xff, 0xff,
  0xfd, 0x01, 0x00, 0x00, 0x04, 0x00, 0x00, 0x00, 0x13, 0x00, 0x00, 0x00,
  0x6d, 0x69, 0x6e, 0x5f, 0x72, 0x75, 0x6e, 0x74, 0x69, 0x6d, 0x65, 0x5f,
  0x76, 0x65, 0x72, 0x73, 0x69, 0x6f, 0x6e, 0x00, 0xff, 0x01, 0x00, 0x00,
  0xd0, 0x52, 0x00, 0x00, 0xc8, 0x52, 0x00, 0x00, 0x78, 0x52, 0x00, 0x00,
  0x64, 0x52, 0x00, 0x00, 0xd4, 0x50, 0x00, 0x00, 0x44, 0x4f, 0x00, 0x00,
  0xf4, 0x4e, 0x00, 0x00, 0xe4, 0x46, 0x00, 0x00, 0xd4, 0x40, 0x00, 0x00,
  0xc4, 0x10, 0x00, 0x00, 0xb0, 0x10, 0x00, 0x00, 0x9c, 0x10, 0x00, 0x00,
  0x80, 0x10, 0x00, 0x00, 0x6c, 0x10, 0x00, 0x00, 0x64, 0x10, 0x00, 0x00,
  0x50, 0x10, 0x00, 0x00, 0x38, 0x10, 0x00, 0x00, 0x20, 0x10, 0x00, 0x00,
  0x08, 0x10, 0x00, 0x00, 0xf0, 0x0f, 0x00, 0x00, 0xdc, 0x0f, 0x00, 0x00,
  0xd4, 0x0f, 0x00, 0x00, 0xcc, 0x0f, 0x00, 0x00, 0xc4, 0x0f, 0x00, 0x00,
  0xbc, 0x0f, 0x00, 0x00, 0xb4, 0x0f, 0x00, 0x00, 0xac, 0x0f, 0x00, 0x00,
  0xa4, 0x0f, 0x00, 0x00, 0x9c, 0x0f, 0x00, 0x00, 0x94, 0x0f, 0x00, 0x00,
  0x8c, 0x0f, 0x00, 0x00, 0x84, 0x0f, 0x00, 0x00, 0x7c, 0x0f, 0x00, 0x00,
  0x74, 0x0f, 0x00, 0x00, 0x6c, 0x0f, 0x00, 0x00, 0x64, 0x0f, 0x00, 0x00,
  0x5c, 0x0f, 0x00, 0x00, 0x54, 0x0f, 0x00, 0x00, 0x4c, 0x0f, 0x00, 0x00,
  0x44, 0x0f, 0x00, 0x00, 0x3c, 0x0f, 0x00, 0x00, 0x34, 0x0f, 0x00, 0x00,
  0x2c, 0x0f, 0x00, 0x00, 0x24, 0x0f, 0x00, 0x00, 0x1c, 0x0f, 0x00, 0x00,
  0x14, 0x0f, 0x00, 0x00, 0x0c, 0x0f, 0x00, 0x00, 0x04, 0x0f, 0x00, 0x00,
  0xfc, 0x0e, 0x00, 0x00, 0xf4, 0x0e, 0x00, 0x00, 0xec, 0x0e, 0x00, 0x00,
  0xe4, 0x0e, 0x00, 0x00, 0xdc, 0x0e, 0x00, 0x00, 0xd4, 0x0e, 0x00, 0x00,
  0xcc, 0x0e, 0x00, 0x00, 0xc4, 0x0e, 0x00, 0x00, 0xbc, 0x0e, 0x00, 0x00,
  0xb4, 0x0e, 0x00, 0x00, 0xac, 0x0e, 0x00, 0x00, 0xa4, 0x0e, 0x00, 0x00,
  0x9c, 0x0e, 0x00, 0x00, 0x94, 0x0e, 0x00, 0x00, 0x8c, 0x0e, 0x00, 0x00,
  0x84, 0x0e, 0x00, 0x00, 0x7c, 0x0e, 0x00, 0x00, 0x74, 0x0e, 0x00, 0x00,
  0x6c, 0x0e, 0x00, 0x00, 0x64, 0x0e, 0x00, 0x00, 0x5c, 0x0e, 0x00, 0x00,
  0x54, 0x0e, 0x00, 0x00, 0x4c, 0x0e, 0x00, 0x00, 0x44, 0x0e, 0x00, 0x00,
  0x3c, 0x0e, 0x00, 0x00, 0x34, 0x0e, 0x00, 0x00, 0x2c, 0x0e, 0x00, 0x00,
  0x24, 0x0e, 0x00, 0x00, 0x1c, 0x0e, 0x00, 0x00, 0x14, 0x0e, 0x00, 0x00,
  0x0c, 0x0e, 0x00, 0x00, 0x04, 0x0e, 0x00, 0x00, 0xfc, 0x0d, 0x00, 0x00,
  0xf4, 0x0d, 0x00, 0x00, 0xec, 0x0d, 0x00, 0x00, 0xe4, 0x0d, 0x00, 0x00,
  0xdc, 0x0d, 0x00, 0x00, 0xd4, 0x0d, 0x00, 0x00, 0xcc, 0x0d, 0x00, 0x00,
  0xc4, 0x0d, 0x00, 0x00, 0xbc, 0x0d, 0x00, 0x00, 0xb4, 0x0d, 0x00, 0x00,
  0xac, 0x0d, 0x00, 0x00, 0xa4, 0x0d, 0x00, 0x00, 0x9c, 0x0d, 0x00, 0x00,
  0x94, 0x0d, 0x00, 0x00, 0x8c, 0x0d, 0x00, 0x00, 0x84, 0x0d, 0x00, 0x00,
  0x7c, 0x0d, 0x00, 0x00, 0x74, 0x0d, 0x00, 0x00, 0x6c, 0x0d, 0x00, 0x00,
  0x64, 0x0d, 0x00, 0x00, 0x5c, 0x0d, 0x00, 0x00, 0x54, 0x0d, 0x00, 0x00,
  0x4c, 0x0d, 0x00, 0x00, 0x44, 0x0d, 0x00, 0x00, 0x3c, 0x0d, 0x00, 0x00,
  0x34, 0x0d, 0x00, 0x00, 0x2c, 0x0d, 0x00, 0x00, 0x24, 0x0d, 0x00, 0x00,
  0x1c, 0x0d, 0x00, 0x00, 0x14, 0x0d, 0x00, 0x00, 0x0c, 0x0d, 0x00, 0x00,
  0x04, 0x0d, 0x00, 0x00, 0xfc, 0x0c, 0x00, 0x00, 0xf4, 0x0c, 0x00, 0x00,
  0xec, 0x0c, 0x00, 0x00, 0xe4, 0x0c, 0x00, 0x00, 0xdc, 0x0c, 0x00, 0x00,
  0xd4, 0x0c, 0x00, 0x00, 0xcc, 0x0c, 0x00, 0x00, 0xc4, 0x0c, 0x00, 0x00,
  0xbc, 0x0c, 0x00, 0x00, 0xb4, 0x0c, 0x00, 0x00, 0xac, 0x0c, 0x00, 0x00,
  0xa4, 0x0c, 0x00, 0x00, 0x9c, 0x0c, 0x00, 0x00, 0x94, 0x0c, 0x00, 0x00,
  0x8c, 0x0c, 0x00, 0x00, 0x84, 0x0c, 0x00, 0x00, 0x7c, 0x0c, 0x00, 0x00,
  0x74, 0x0c, 0x00, 0x00, 0x6c, 0x0c, 0x00, 0x00, 0x64, 0x0c, 0x00, 0x00,
  0x5c, 0x0c, 0x00, 0x00, 0x54, 0x0c, 0x00, 0x00, 0x4c, 0x0c, 0x00, 0x00,
  0x44, 0x0c, 0x00, 0x00, 0x3c, 0x0c, 0x00, 0x00, 0x34, 0x0c, 0x00, 0x00,
  0x2c, 0x0c, 0x00, 0x00, 0x24, 0x0c, 0x00, 0x00, 0x1c, 0x0c, 0x00, 0x00,
  0x14, 0x0c, 0x00, 0x00, 0x0c, 0x0c, 0x00, 0x00, 0x04, 0x0c, 0x00, 0x00,
  0xfc, 0x0b, 0x00, 0x00, 0xf4, 0x0b, 0x00, 0x00, 0xec, 0x0b, 0x00, 0x00,
  0xe4, 0x0b, 0x00, 0x00, 0xdc, 0x0b, 0x00, 0x00, 0xd4, 0x0b, 0x00, 0x00,
  0xcc, 0x0b, 0x00, 0x00, 0xc4, 0x0b, 0x00, 0x00, 0xbc, 0x0b, 0x00, 0x00,
  0xb4, 0x0b, 0x00, 0x00, 0xac, 0x0b, 0x00, 0x00, 0xa4, 0x0b, 0x00, 0x00,
  0x9c, 0x0b, 0x00, 0x00, 0x94, 0x0b, 0x00, 0x00, 0x8c, 0x0b, 0x00, 0x00,
  0x84, 0x0b, 0x00, 0x00, 0x7c, 0x0b, 0x00, 0x00, 0x74, 0x0b, 0x00, 0x00,
  0x6c, 0x0b, 0x00, 0x00, 0x64, 0x0b, 0x00, 0x00, 0x5c, 0x0b, 0x00, 0x00,
  0x54, 0x0b, 0x00, 0x00, 0x4c, 0x0b, 0x00, 0x00, 0x44, 0x0b, 0x00, 0x00,
  0x3c, 0x0b, 0x00, 0x00, 0x34, 0x0b, 0x00, 0x00, 0x2c, 0x0b, 0x00, 0x00,
  0x24, 0x0b, 0x00, 0x00, 0x1c, 0x0b, 0x00, 0x00, 0x14, 0x0b, 0x00, 0x00,
  0x0c, 0x0b, 0x00, 0x00, 0x04, 0x0b, 0x00, 0x00, 0xfc, 0x0a, 0x00, 0x00,
  0xf4, 0x0a, 0x00, 0x00, 0xec, 0x0a, 0x00, 0x00, 0xe4, 0x0a, 0x00, 0x00,
  0xdc, 0x0a, 0x00, 0x00, 0xd4, 0x0a, 0x00, 0x00, 0xcc, 0x0a, 0x00, 0x00,
  0xc4, 0x0a, 0x00, 0x00, 0xbc, 0x0a, 0x00, 0x00, 0xb4, 0x0a, 0x00, 0x00,
  0xac, 0x0a, 0x00, 0x00, 0xa4, 0x0a, 0x00, 0x00, 0x9c, 0x0a, 0x00, 0x00,
  0x94, 0x0a, 0x00, 0x00, 0x8c, 0x0a, 0x00, 0x00, 0x84, 0x0a, 0x00, 0x00,
  0x7c, 0x0a, 0x00, 0x00, 0x74, 0x0a, 0x00, 0x00, 0x6c, 0x0a, 0x00, 0x00,
  0x64, 0x0a, 0x00, 0x00, 0x5c, 0x0a, 0x00, 0x00, 0x54, 0x0a, 0x00, 0x00,
  0x4c, 0x0a, 0x00, 0x00, 0x44, 0x0a, 0x00, 0x00, 0x3c, 0x0a, 0x00, 0x00,
  0x34, 0x0a, 0x00, 0x00, 0x2c, 0x0a, 0x00, 0x00, 0x24, 0x0a, 0x00, 0x00,
  0x1c, 0x0a, 0x00, 0x00, 0x14, 0x0a, 0x00, 0x00, 0x0c, 0x0a, 0x00, 0x00,
  0x04, 0x0a, 0x00, 0x00, 0xfc, 0x09, 0x00, 0x00, 0xf4, 0x09, 0x00, 0x00,
  0xec, 0x09, 0x00, 0x00, 0xe4, 0x09, 0x00, 0x00, 0xdc, 0x09, 0x00, 0x00,
  0xd4, 0x09, 0x00, 0x00, 0xcc, 0x09, 0x00, 0x00, 0xc4, 0x09, 0x00, 0x00,
  0xbc, 0x09, 0x00, 0x00, 0xb4, 0x09, 0x00, 0x00, 0xac, 0x09, 0x00, 0x00,
  0xa4, 0x09, 0x00, 0x00, 0x9c, 0x09, 0x00, 0x00, 0x94, 0x09, 0x00, 0x00,
  0x8c, 0x09, 0x00, 0x00, 0x84, 0x09, 0x00, 0x00, 0x7c, 0x09, 0x00, 0x00,
  0x74, 0x09, 0x00, 0x00, 0x6c, 0x09, 0x00, 0x00, 0x64, 0x09, 0x00, 0x00,
  0x5c, 0x09, 0x00, 0x00, 0x54, 0x09, 0x00, 0x00, 0x4c, 0x09, 0x00, 0x00,
  0x44, 0x09, 0x00, 0x00, 0x3c, 0x09, 0x00, 0x00, 0x34, 0x09, 0x00, 0x00,
  0x2c, 0x09, 0x00, 0x00, 0x24, 0x09, 0x00, 0x00, 0x1c, 0x09, 0x00, 0x00,
  0x14, 0x09, 0x00, 0x00, 0x0c, 0x09, 0x00, 0x00, 0x04, 0x09, 0x00, 0x00,
  0xfc, 0x08, 0x00, 0x00, 0xf4, 0x08, 0x00, 0x00, 0xec, 0x08, 0x00, 0x00,
  0xe4, 0x08, 0x00, 0x00, 0xdc, 0x08, 0x00, 0x00, 0xd4, 0x08, 0x00, 0x00,
  0xcc, 0x08, 0x00, 0x00, 0xc4, 0x08, 0x00, 0x00, 0xbc, 0x08, 0x00, 0x00,
  0xb4, 0x08, 0x00, 0x00, 0xac, 0x08, 0x00, 0x00, 0xa4, 0x08, 0x00, 0x00,
  0x9c, 0x08, 0x00, 0x00, 0x94, 0x08, 0x00, 0x00, 0x8c, 0x08, 0x00, 0x00,
  0x84, 0x08, 0x00, 0x00, 0x7c, 0x08, 0x00, 0x00, 0x74, 0x08, 0x00, 0x00,
  0x6c, 0x08, 0x00, 0x00, 0x64, 0x08, 0x00, 0x00, 0x5c, 0x08, 0x00, 0x00,
  0x54, 0x08, 0x00, 0x00, 0x4c, 0x08, 0x00, 0x00, 0x44, 0x08, 0x00, 0x00,
  0x3c, 0x08, 0x00, 0x00, 0x34, 0x08, 0x00, 0x00, 0x2c, 0x08, 0x00, 0x00,
  0x24, 0x08, 0x00, 0x00, 0x1c, 0x08, 0x00, 0x00, 0x14, 0x08, 0x00, 0x00,
  0x0c, 0x08, 0x00, 0x00, 0x04, 0x08, 0x00, 0x00, 0xfc, 0x07, 0x00, 0x00,
  0xf4, 0x07, 0x00, 0x00, 0xec, 0x07, 0x00, 0x00, 0xe4, 0x07, 0x00, 0x00,
  0xdc, 0x07, 0x00, 0x00, 0xd4, 0x07, 0x00, 0x00, 0xcc, 0x07, 0x00, 0x00,
  0xc4, 0x07, 0x00, 0x00, 0xbc, 0x07, 0x00, 0x00, 0xb4, 0x07, 0x00, 0x00,
  0xac, 0x07, 0x00, 0x00, 0xa4, 0x07, 0x00, 0x00, 0x9c, 0x07, 0x00, 0x00,
  0x94, 0x07, 0x00, 0x00, 0x8c, 0x07, 0x00, 0x00, 0x84, 0x07, 0x00, 0x00,
  0x7c, 0x07, 0x00, 0x00, 0x74, 0x07, 0x00, 0x00, 0x6c, 0x07, 0x00, 0x00,
  0x64, 0x07, 0x00, 0x00, 0x5c, 0x07, 0x00, 0x00, 0x54, 0x07, 0x00, 0x00,
  0x4c, 0x07, 0x00, 0x00, 0x44, 0x07, 0x00, 0x00, 0x3c, 0x07, 0x00, 0x00,
  0x34, 0x07, 0x00, 0x00, 0x2c, 0x07, 0x00, 0x00, 0x24, 0x07, 0x00, 0x00,
  0x1c, 0x07, 0x00, 0x00, 0x14, 0x07, 0x00, 0x00, 0x0c, 0x07, 0x00, 0x00,
  0x04, 0x07, 0x00, 0x00, 0xfc, 0x06, 0x00, 0x00, 0xf4, 0x06, 0x00, 0x00,
  0xec, 0x06, 0x00, 0x00, 0xe4, 0x06, 0x00, 0x00, 0xdc, 0x06, 0x00, 0x00,
  0xd4, 0x06, 0x00, 0x00, 0xcc, 0x06, 0x00, 0x00, 0xc4, 0x06, 0x00, 0x00,
  0xbc, 0x06, 0x00, 0x00, 0xb4, 0x06, 0x00, 0x00, 0xac, 0x06, 0x00, 0x00,
  0xa4, 0x06, 0x00, 0x00, 0x9c, 0x06, 0x00, 0x00, 0x94, 0x06, 0x00, 0x00,
  0x8c, 0x06, 0x00, 0x00, 0x84, 0x06, 0x00, 0x00, 0x7c, 0x06, 0x00, 0x00,
  0x74, 0x06, 0x00, 0x00, 0x6c, 0x06, 0x00, 0x00, 0x64, 0x06, 0x00, 0x00,
  0x5c, 0x06, 0x00, 0x00, 0x54, 0x06, 0x00, 0x00, 0x4c, 0x06, 0x00, 0x00,
  0x44, 0x06, 0x00, 0x00, 0x3c, 0x06, 0x00, 0x00, 0x34, 0x06, 0x00, 0x00,
  0x2c, 0x06, 0x00, 0x00, 0x24, 0x06, 0x00, 0x00, 0x1c, 0x06, 0x00, 0x00,
  0x14, 0x06, 0x00, 0x00, 0x0c, 0x06, 0x00, 0x00, 0x04, 0x06, 0x00, 0x00,
  0xfc, 0x05, 0x00, 0x00, 0xf4, 0x05, 0x00, 0x00, 0xec, 0x05, 0x00, 0x00,
  0xe4, 0x05, 0x00, 0x00, 0xdc, 0x05, 0x00, 0x00, 0xd4, 0x05, 0x00, 0x00,
  0xcc, 0x05, 0x00, 0x00, 0xc4, 0x05, 0x00, 0x00, 0xbc, 0x05, 0x00, 0x00,
  0xb4, 0x05, 0x00, 0x00, 0xac, 0x05, 0x00, 0x00, 0xa4, 0x05, 0x00, 0x00,
  0x9c, 0x05, 0x00, 0x00, 0x94, 0x05, 0x00, 0x00, 0x8c, 0x05, 0x00, 0x00,
  0x84, 0x05, 0x00, 0x00, 0x7c, 0x05, 0x00, 0x00, 0x74, 0x05, 0x00, 0x00,
  0x6c, 0x05, 0x00, 0x00, 0x64, 0x05, 0x00, 0x00, 0x5c, 0x05, 0x00, 0x00,
  0x54, 0x05, 0x00, 0x00, 0x4c, 0x05, 0x00, 0x00, 0x44, 0x05, 0x00, 0x00,
  0x3c, 0x05, 0x00, 0x00, 0x34, 0x05, 0x00, 0x00, 0x2c, 0x05, 0x00, 0x00,
  0x24, 0x05, 0x00, 0x00, 0x1c, 0x05, 0x00, 0x00, 0x14, 0x05, 0x00, 0x00,
  0x0c, 0x05, 0x00, 0x00, 0x04, 0x05, 0x00, 0x00, 0xfc, 0x04, 0x00, 0x00,
  0xf4, 0x04, 0x00, 0x00, 0xec, 0x04, 0x00, 0x00, 0xe4, 0x04, 0x00, 0x00,
  0xdc, 0x04, 0x00, 0x00, 0xd4, 0x04, 0x00, 0x00, 0xcc, 0x04, 0x00, 0x00,
  0xc4, 0x04, 0x00, 0x00, 0xbc, 0x04, 0x00, 0x00, 0xb4, 0x04, 0x00, 0x00,
  0xac, 0x04, 0x00, 0x00, 0xa4, 0x04, 0x00, 0x00, 0x9c, 0x04, 0x00, 0x00,
  0x94, 0x04, 0x00, 0x00, 0x8c, 0x04, 0x00, 0x00, 0x84, 0x04, 0x00, 0x00,
  0x7c, 0x04, 0x00, 0x00, 0x74, 0x04, 0x00, 0x00, 0x6c, 0x04, 0x00, 0x00,
  0x64, 0x04, 0x00, 0x00, 0x5c, 0x04, 0x00, 0x00, 0x54, 0x04, 0x00, 0x00,
  0x4c, 0x04, 0x00, 0x00, 0x44, 0x04, 0x00, 0x00, 0x3c, 0x04, 0x00, 0x00,
  0x34, 0x04, 0x00, 0x00, 0x2c, 0x04, 0x00, 0x00, 0x24, 0x04, 0x00, 0x00,
  0x1c, 0x04, 0x00, 0x00, 0x14, 0x04, 0x00, 0x00, 0x0c, 0x04, 0x00, 0x00,
  0x04, 0x04, 0x00, 0x00, 0xfc, 0x03, 0x00, 0x00, 0xf4, 0x03, 0x00, 0x00,
  0xec, 0x03, 0x00, 0x00, 0xe4, 0x03, 0x00, 0x00, 0xdc, 0x03, 0x00, 0x00,
  0xd4, 0x03, 0x00, 0x00, 0xcc, 0x03, 0x00, 0x00, 0xc4, 0x03, 0x00, 0x00,
  0xbc, 0x03, 0x00, 0x00, 0xb4, 0x03, 0x00, 0x00, 0xac, 0x03, 0x00, 0x00,
  0xa4, 0x03, 0x00, 0x00, 0x9c, 0x03, 0x00, 0x00, 0x94, 0x03, 0x00, 0x00,
  0x8c, 0x03, 0x00, 0x00, 0x84, 0x03, 0x00, 0x00, 0x7c, 0x03, 0x00, 0x00,
  0x74, 0x03, 0x00, 0x00, 0x6c, 0x03, 0x00, 0x00, 0x64, 0x03, 0x00, 0x00,
  0x5c, 0x03, 0x00, 0x00, 0x54, 0x03, 0x00, 0x00, 0x4c, 0x03, 0x00, 0x00,
  0x44, 0x03, 0x00, 0x00, 0x3c, 0x03, 0x00, 0x00, 0x34, 0x03, 0x00, 0x00,
  0x2c, 0x03, 0x00, 0x00, 0x24, 0x03, 0x00, 0x00, 0x1c, 0x03, 0x00, 0x00,
  0x14, 0x03, 0x00, 0x00, 0x0c, 0x03, 0x00, 0x00, 0x04, 0x03, 0x00, 0x00,
  0xfc, 0x02, 0x00, 0x00, 0xf4, 0x02, 0x00, 0x00, 0xec, 0x02, 0x00, 0x00,
  0xe4, 0x02, 0x00, 0x00, 0xdc, 0x02, 0x00, 0x00, 0xd4, 0x02, 0x00, 0x00,
  0xcc, 0x02, 0x00, 0x00, 0xc4, 0x02, 0x00, 0x00, 0xbc, 0x02, 0x00, 0x00,
  0xb4, 0x02, 0x00, 0x00, 0xac, 0x02, 0x00, 0x00, 0xa4, 0x02, 0x00, 0x00,
  0x9c, 0x02, 0x00, 0x00, 0x94, 0x02, 0x00, 0x00, 0x8c, 0x02, 0x00, 0x00,
  0x84, 0x02, 0x00, 0x00, 0x7c, 0x02, 0x00, 0x00, 0x74, 0x02, 0x00, 0x00,
  0x6c, 0x02, 0x00, 0x00, 0x64, 0x02, 0x00, 0x00, 0x5c, 0x02, 0x00, 0x00,
  0x54, 0x02, 0x00, 0x00, 0x4c, 0x02, 0x00, 0x00, 0x44, 0x02, 0x00, 0x00,
  0x3c, 0x02, 0x00, 0x00, 0x34, 0x02, 0x00, 0x00, 0x2c, 0x02, 0x00, 0x00,
  0x24, 0x02, 0x00, 0x00, 0x1c, 0x02, 0x00, 0x00, 0x14, 0x02, 0x00, 0x00,
  0x0c, 0x02, 0x00, 0x00, 0x04, 0x02, 0x00, 0x00, 0xfc, 0x01, 0x00, 0x00,
  0xf4, 0x01, 0x00, 0x00, 0xec, 0x01, 0x00, 0x00, 0xe4, 0x01, 0x00, 0x00,
  0xdc, 0x01, 0x00, 0x00, 0xd4, 0x01, 0x00, 0x00, 0xcc, 0x01, 0x00, 0x00,
  0xc4, 0x01, 0x00, 0x00, 0xbc, 0x01, 0x00, 0x00, 0xb4, 0x01, 0x00, 0x00,
  0xac, 0x01, 0x00, 0x00, 0xa4, 0x01, 0x00, 0x00, 0x9c, 0x01, 0x00, 0x00,
  0x94, 0x01, 0x00, 0x00, 0x8c, 0x01, 0x00, 0x00, 0x84, 0x01, 0x00, 0x00,
  0x7c, 0x01, 0x00, 0x00, 0x74, 0x01, 0x00, 0x00, 0x6c, 0x01, 0x00, 0x00,
  0x64, 0x01, 0x00, 0x00, 0x5c, 0x01, 0x00, 0x00, 0x54, 0x01, 0x00, 0x00,
  0x4c, 0x01, 0x00, 0x00, 0x44, 0x01, 0x00, 0x00, 0x3c, 0x01, 0x00, 0x00,
  0x34, 0x01, 0x00, 0x00, 0x2c, 0x01, 0x00, 0x00, 0x24, 0x01, 0x00, 0x00,
  0x1c, 0x01, 0x00, 0x00, 0x14, 0x01, 0x00, 0x00, 0x0c, 0x01, 0x00, 0x00,
  0x04, 0x01, 0x00, 0x00, 0xfc, 0x00, 0x00, 0x00, 0xf4, 0x00, 0x00, 0x00,
  0xec, 0x00, 0x00, 0x00, 0xe4, 0x00, 0x00, 0x00, 0xdc, 0x00, 0x00, 0x00,
  0xd4, 0x00, 0x00, 0x00, 0xcc, 0x00, 0x00, 0x00, 0xc4, 0x00, 0x00, 0x00,
  0xbc, 0x00, 0x00, 0x00, 0xb4, 0x00, 0x00, 0x00, 0xac, 0x00, 0x00, 0x00,
  0xa4, 0x00, 0x00, 0x00, 0x9c, 0x00, 0x00, 0x00, 0x7c, 0x00, 0x00, 0x00,
  0x04, 0x00, 0x00, 0x00, 0xea, 0x5e, 0xff, 0xff, 0x04, 0x00, 0x00, 0x00,
  0x68, 0x00, 0x00, 0x00, 0x10, 0x00, 0x00, 0x00, 0x00, 0x00, 0x00, 0x00,
  0x08, 0x00, 0x0e, 0x00, 0x08, 0x00, 0x04, 0x00, 0x08, 0x00, 0x00, 0x00,
  0x14, 0x00, 0x00, 0x00, 0x2c, 0x00, 0x00, 0x00, 0x00, 0x00, 0x0a, 0x00,
  0x0c, 0x00, 0x08, 0x00, 0x00, 0x00, 0x07, 0x00, 0x0a, 0x00, 0x00, 0x00,
  0x00, 0x00, 0x00, 0x01, 0x04, 0x00, 0x00, 0x00, 0x00, 0x00, 0x00, 0x00,
  0x0c, 0x00, 0x18, 0x00, 0x14, 0x00, 0x10, 0x00, 0x0c, 0x00, 0x04, 0x00,
  0x0c, 0x00, 0x00, 0x00, 0x87, 0x9f, 0x80, 0x6d, 0x8d, 0xe5, 0xaf, 0x81,
  0x01, 0x00, 0x00, 0x00, 0x02, 0x00, 0x00, 0x00, 0x04, 0x00, 0x00, 0x00,
  0x06, 0x00, 0x00, 0x00, 0x32, 0x2e, 0x32, 0x30, 0x2e, 0x30, 0x00, 0x00,
  0x5e, 0x5f, 0xff, 0xff, 0x04, 0x00, 0x00, 0x00, 0x10, 0x00, 0x00, 0x00,
  0x31, 0x2e, 0x31, 0x34, 0x2e, 0x30, 0x00, 0x00, 0x00, 0x00, 0x00, 0x00,
  0x00, 0x00, 0x00, 0x00, 0x3c, 0x8b, 0xfe, 0xff, 0x40, 0x8b, 0xfe, 0xff,
  0x44, 0x8b, 0xfe, 0xff, 0x48, 0x8b, 0xfe, 0xff, 0x4c, 0x8b, 0xfe, 0xff,
  0x50, 0x8b, 0xfe, 0xff, 0x54, 0x8b, 0xfe, 0xff, 0x58, 0x8b, 0xfe, 0xff,
  0x5c, 0x8b, 0xfe, 0xff, 0x60, 0x8b, 0xfe, 0xff, 0x64, 0x8b, 0xfe, 0xff,
  0x68, 0x8b, 0xfe, 0xff, 0x6c, 0x8b, 0xfe, 0xff, 0x70, 0x8b, 0xfe, 0xff,
  0x74, 0x8b, 0xfe, 0xff, 0x78, 0x8b, 0xfe, 0xff, 0x7c, 0x8b, 0xfe, 0xff,
  0x80, 0x8b, 0xfe, 0xff, 0x84, 0x8b, 0xfe, 0xff, 0x88, 0x8b, 0xfe, 0xff,
  0x8c, 0x8b, 0xfe, 0xff, 0x90, 0x8b, 0xfe, 0xff, 0x94, 0x8b, 0xfe, 0xff,
  0x98, 0x8b, 0xfe, 0xff, 0x9c, 0x8b, 0xfe, 0xff, 0xa0, 0x8b, 0xfe, 0xff,
  0xa4, 0x8b, 0xfe, 0xff, 0xa8, 0x8b, 0xfe, 0xff, 0xac, 0x8b, 0xfe, 0xff,
  0xb0, 0x8b, 0xfe, 0xff, 0xb4, 0x8b, 0xfe, 0xff, 0xb8, 0x8b, 0xfe, 0xff,
  0xbc, 0x8b, 0xfe, 0xff, 0xc0, 0x8b, 0xfe, 0xff, 0xc4, 0x8b, 0xfe, 0xff,
  0xc8, 0x8b, 0xfe, 0xff, 0xcc, 0x8b, 0xfe, 0xff, 0xd0, 0x8b, 0xfe, 0xff,
  0xd4, 0x8b, 0xfe, 0xff, 0xd8, 0x8b, 0xfe, 0xff, 0xdc, 0x8b, 0xfe, 0xff,
  0xe0, 0x8b, 0xfe, 0xff, 0xe4, 0x8b, 0xfe, 0xff, 0xe8, 0x8b, 0xfe, 0xff,
  0xec, 0x8b, 0xfe, 0xff, 0xf0, 0x8b, 0xfe, 0xff, 0xf4, 0x8b, 0xfe, 0xff,
  0xf8, 0x8b, 0xfe, 0xff, 0xfc, 0x8b, 0xfe, 0xff, 0x00, 0x8c, 0xfe, 0xff,
  0x04, 0x8c, 0xfe, 0xff, 0x08, 0x8c, 0xfe, 0xff, 0x0c, 0x8c, 0xfe, 0xff,
  0x10, 0x8c, 0xfe, 0xff, 0x14, 0x8c, 0xfe, 0xff, 0x18, 0x8c, 0xfe, 0xff,
  0x1c, 0x8c, 0xfe, 0xff, 0x20, 0x8c, 0xfe, 0xff, 0x24, 0x8c, 0xfe, 0xff,
  0x28, 0x8c, 0xfe, 0xff, 0x2c, 0x8c, 0xfe, 0xff, 0x30, 0x8c, 0xfe, 0xff,
  0x34, 0x8c, 0xfe, 0xff, 0x38, 0x8c, 0xfe, 0xff, 0x3c, 0x8c, 0xfe, 0xff,
  0x40, 0x8c, 0xfe, 0xff, 0x44, 0x8c, 0xfe, 0xff, 0x48, 0x8c, 0xfe, 0xff,
  0x4c, 0x8c, 0xfe, 0xff, 0x50, 0x8c, 0xfe, 0xff, 0x54, 0x8c, 0xfe, 0xff,
  0x58, 0x8c, 0xfe, 0xff, 0x5c, 0x8c, 0xfe, 0xff, 0x60, 0x8c, 0xfe, 0xff,
  0x64, 0x8c, 0xfe, 0xff, 0x68, 0x8c, 0xfe, 0xff, 0x6c, 0x8c, 0xfe, 0xff,
  0x70, 0x8c, 0xfe, 0xff, 0x74, 0x8c, 0xfe, 0xff, 0x78, 0x8c, 0xfe, 0xff,
  0x7c, 0x8c, 0xfe, 0xff, 0x80, 0x8c, 0xfe, 0xff, 0x84, 0x8c, 0xfe, 0xff,
  0x88, 0x8c, 0xfe, 0xff, 0x8c, 0x8c, 0xfe, 0xff, 0x90, 0x8c, 0xfe, 0xff,
  0x94, 0x8c, 0xfe, 0xff, 0x98, 0x8c, 0xfe, 0xff, 0x9c, 0x8c, 0xfe, 0xff,
  0xa0, 0x8c, 0xfe, 0xff, 0xa4, 0x8c, 0xfe, 0xff, 0xa8, 0x8c, 0xfe, 0xff,
  0xac, 0x8c, 0xfe, 0xff, 0xb0, 0x8c, 0xfe, 0xff, 0xb4, 0x8c, 0xfe, 0xff,
  0xb8, 0x8c, 0xfe, 0xff, 0xbc, 0x8c, 0xfe, 0xff, 0xc0, 0x8c, 0xfe, 0xff,
  0xc4, 0x8c, 0xfe, 0xff, 0xc8, 0x8c, 0xfe, 0xff, 0xcc, 0x8c, 0xfe, 0xff,
  0xd0, 0x8c, 0xfe, 0xff, 0xd4, 0x8c, 0xfe, 0xff, 0xd8, 0x8c, 0xfe, 0xff,
  0xdc, 0x8c, 0xfe, 0xff, 0xe0, 0x8c, 0xfe, 0xff, 0xe4, 0x8c, 0xfe, 0xff,
  0xe8, 0x8c, 0xfe, 0xff, 0xec, 0x8c, 0xfe, 0xff, 0xf0, 0x8c, 0xfe, 0xff,
  0xf4, 0x8c, 0xfe, 0xff, 0xf8, 0x8c, 0xfe, 0xff, 0xfc, 0x8c, 0xfe, 0xff,
  0x00, 0x8d, 0xfe, 0xff, 0x04, 0x8d, 0xfe, 0xff, 0x08, 0x8d, 0xfe, 0xff,
  0x0c, 0x8d, 0xfe, 0xff, 0x10, 0x8d, 0xfe, 0xff, 0x14, 0x8d, 0xfe, 0xff,
  0x18, 0x8d, 0xfe, 0xff, 0x1c, 0x8d, 0xfe, 0xff, 0x20, 0x8d, 0xfe, 0xff,
  0x24, 0x8d, 0xfe, 0xff, 0x28, 0x8d, 0xfe, 0xff, 0x2c, 0x8d, 0xfe, 0xff,
  0x30, 0x8d, 0xfe, 0xff, 0x34, 0x8d, 0xfe, 0xff, 0x38, 0x8d, 0xfe, 0xff,
  0x3c, 0x8d, 0xfe, 0xff, 0x40, 0x8d, 0xfe, 0xff, 0x44, 0x8d, 0xfe, 0xff,
  0x48, 0x8d, 0xfe, 0xff, 0x4c, 0x8d, 0xfe, 0xff, 0x50, 0x8d, 0xfe, 0xff,
  0x54, 0x8d, 0xfe, 0xff, 0x58, 0x8d, 0xfe, 0xff, 0x5c, 0x8d, 0xfe, 0xff,
  0x60, 0x8d, 0xfe, 0xff, 0x64, 0x8d, 0xfe, 0xff, 0x68, 0x8d, 0xfe, 0xff,
  0x6c, 0x8d, 0xfe, 0xff, 0x70, 0x8d, 0xfe, 0xff, 0x74, 0x8d, 0xfe, 0xff,
  0x78, 0x8d, 0xfe, 0xff, 0x7c, 0x8d, 0xfe, 0xff, 0x80, 0x8d, 0xfe, 0xff,
  0x84, 0x8d, 0xfe, 0xff, 0x88, 0x8d, 0xfe, 0xff, 0x8c, 0x8d, 0xfe, 0xff,
  0x90, 0x8d, 0xfe, 0xff, 0x94, 0x8d, 0xfe, 0xff, 0x98, 0x8d, 0xfe, 0xff,
  0x9c, 0x8d, 0xfe, 0xff, 0xa0, 0x8d, 0xfe, 0xff, 0xa4, 0x8d, 0xfe, 0xff,
  0xa8, 0x8d, 0xfe, 0xff, 0xac, 0x8d, 0xfe, 0xff, 0xb0, 0x8d, 0xfe, 0xff,
  0xb4, 0x8d, 0xfe, 0xff, 0xb8, 0x8d, 0xfe, 0xff, 0xbc, 0x8d, 0xfe, 0xff,
  0xc0, 0x8d, 0xfe, 0xff, 0xc4, 0x8d, 0xfe, 0xff, 0xc8, 0x8d, 0xfe, 0xff,
  0xcc, 0x8d, 0xfe, 0xff, 0xd0, 0x8d, 0xfe, 0xff, 0xd4, 0x8d, 0xfe, 0xff,
  0xd8, 0x8d, 0xfe, 0xff, 0xdc, 0x8d, 0xfe, 0xff, 0xe0, 0x8d, 0xfe, 0xff,
  0xe4, 0x8d, 0xfe, 0xff, 0xe8, 0x8d, 0xfe, 0xff, 0xec, 0x8d, 0xfe, 0xff,
  0xf0, 0x8d, 0xfe, 0xff, 0xf4, 0x8d, 0xfe, 0xff, 0xf8, 0x8d, 0xfe, 0xff,
  0xfc, 0x8d, 0xfe, 0xff, 0x00, 0x8e, 0xfe, 0xff, 0x04, 0x8e, 0xfe, 0xff,
  0x08, 0x8e, 0xfe, 0xff, 0x0c, 0x8e, 0xfe, 0xff, 0x10, 0x8e, 0xfe, 0xff,
  0x14, 0x8e, 0xfe, 0xff, 0x18, 0x8e, 0xfe, 0xff, 0x1c, 0x8e, 0xfe, 0xff,
  0x20, 0x8e, 0xfe, 0xff, 0x24, 0x8e, 0xfe, 0xff, 0x28, 0x8e, 0xfe, 0xff,
  0x2c, 0x8e, 0xfe, 0xff, 0x30, 0x8e, 0xfe, 0xff, 0x34, 0x8e, 0xfe, 0xff,
  0x38, 0x8e, 0xfe, 0xff, 0x3c, 0x8e, 0xfe, 0xff, 0x40, 0x8e, 0xfe, 0xff,
  0x44, 0x8e, 0xfe, 0xff, 0x48, 0x8e, 0xfe, 0xff, 0x4c, 0x8e, 0xfe, 0xff,
  0x50, 0x8e, 0xfe, 0xff, 0x54, 0x8e, 0xfe, 0xff, 0x58, 0x8e, 0xfe, 0xff,
  0x5c, 0x8e, 0xfe, 0xff, 0x60, 0x8e, 0xfe, 0xff, 0x64, 0x8e, 0xfe, 0xff,
  0x68, 0x8e, 0xfe, 0xff, 0x6c, 0x8e, 0xfe, 0xff, 0x70, 0x8e, 0xfe, 0xff,
  0x74, 0x8e, 0xfe, 0xff, 0x78, 0x8e, 0xfe, 0xff, 0x7c, 0x8e, 0xfe, 0xff,
  0x80, 0x8e, 0xfe, 0xff, 0x84, 0x8e, 0xfe, 0xff, 0x88, 0x8e, 0xfe, 0xff,
  0x8c, 0x8e, 0xfe, 0xff, 0x90, 0x8e, 0xfe, 0xff, 0x94, 0x8e, 0xfe, 0xff,
  0x98, 0x8e, 0xfe, 0xff, 0x9c, 0x8e, 0xfe, 0xff, 0xa0, 0x8e, 0xfe, 0xff,
  0xa4, 0x8e, 0xfe, 0xff, 0xa8, 0x8e, 0xfe, 0xff, 0xac, 0x8e, 0xfe, 0xff,
  0xb0, 0x8e, 0xfe, 0xff, 0xb4, 0x8e, 0xfe, 0xff, 0xb8, 0x8e, 0xfe, 0xff,
  0xbc, 0x8e, 0xfe, 0xff, 0xc0, 0x8e, 0xfe, 0xff, 0xc4, 0x8e, 0xfe, 0xff,
  0xc8, 0x8e, 0xfe, 0xff, 0xcc, 0x8e, 0xfe, 0xff, 0xd0, 0x8e, 0xfe, 0xff,
  0xd4, 0x8e, 0xfe, 0xff, 0xd8, 0x8e, 0xfe, 0xff, 0xdc, 0x8e, 0xfe, 0xff,
  0xe0, 0x8e, 0xfe, 0xff, 0xe4, 0x8e, 0xfe, 0xff, 0xe8, 0x8e, 0xfe, 0xff,
  0xec, 0x8e, 0xfe, 0xff, 0xf0, 0x8e, 0xfe, 0xff, 0xf4, 0x8e, 0xfe, 0xff,
  0xf8, 0x8e, 0xfe, 0xff, 0xfc, 0x8e, 0xfe, 0xff, 0x00, 0x8f, 0xfe, 0xff,
  0x04, 0x8f, 0xfe, 0xff, 0x08, 0x8f, 0xfe, 0xff, 0x0c, 0x8f, 0xfe, 0xff,
  0x10, 0x8f, 0xfe, 0xff, 0x14, 0x8f, 0xfe, 0xff, 0x18, 0x8f, 0xfe, 0xff,
  0x1c, 0x8f, 0xfe, 0xff, 0x20, 0x8f, 0xfe, 0xff, 0x24, 0x8f, 0xfe, 0xff,
  0x28, 0x8f, 0xfe, 0xff, 0x2c, 0x8f, 0xfe, 0xff, 0x30, 0x8f, 0xfe, 0xff,
  0x34, 0x8f, 0xfe, 0xff, 0x38, 0x8f, 0xfe, 0xff, 0x3c, 0x8f, 0xfe, 0xff,
  0x40, 0x8f, 0xfe, 0xff, 0x44, 0x8f, 0xfe, 0xff, 0x48, 0x8f, 0xfe, 0xff,
  0x4c, 0x8f, 0xfe, 0xff, 0x50, 0x8f, 0xfe, 0xff, 0x54, 0x8f, 0xfe, 0xff,
  0x58, 0x8f, 0xfe, 0xff, 0x5c, 0x8f, 0xfe, 0xff, 0x60, 0x8f, 0xfe, 0xff,
  0x64, 0x8f, 0xfe, 0xff, 0x68, 0x8f, 0xfe, 0xff, 0x6c, 0x8f, 0xfe, 0xff,
  0x70, 0x8f, 0xfe, 0xff, 0x74, 0x8f, 0xfe, 0xff, 0x78, 0x8f, 0xfe, 0xff,
  0x7c, 0x8f, 0xfe, 0xff, 0x80, 0x8f, 0xfe, 0xff, 0x84, 0x8f, 0xfe, 0xff,
  0x88, 0x8f, 0xfe, 0xff, 0x8c, 0x8f, 0xfe, 0xff, 0x90, 0x8f, 0xfe, 0xff,
  0x94, 0x8f, 0xfe, 0xff, 0x98, 0x8f, 0xfe, 0xff, 0x9c, 0x8f, 0xfe, 0xff,
  0xa0, 0x8f, 0xfe, 0xff, 0xa4, 0x8f, 0xfe, 0xff, 0xa8, 0x8f, 0xfe, 0xff,
  0xac, 0x8f, 0xfe, 0xff, 0xb0, 0x8f, 0xfe, 0xff, 0xb4, 0x8f, 0xfe, 0xff,
  0xb8, 0x8f, 0xfe, 0xff, 0xbc, 0x8f, 0xfe, 0xff, 0xc0, 0x8f, 0xfe, 0xff,
  0xc4, 0x8f, 0xfe, 0xff, 0xc8, 0x8f, 0xfe, 0xff, 0xcc, 0x8f, 0xfe, 0xff,
  0xd0, 0x8f, 0xfe, 0xff, 0xd4, 0x8f, 0xfe, 0xff, 0xd8, 0x8f, 0xfe, 0xff,
  0xdc, 0x8f, 0xfe, 0xff, 0xe0, 0x8f, 0xfe, 0xff, 0xe4, 0x8f, 0xfe, 0xff,
  0xe8, 0x8f, 0xfe, 0xff, 0xec, 0x8f, 0xfe, 0xff, 0xf0, 0x8f, 0xfe, 0xff,
  0xf4, 0x8f, 0xfe, 0xff, 0xf8, 0x8f, 0xfe, 0xff, 0xfc, 0x8f, 0xfe, 0xff,
  0x00, 0x90, 0xfe, 0xff, 0x04, 0x90, 0xfe, 0xff, 0x08, 0x90, 0xfe, 0xff,
  0x0c, 0x90, 0xfe, 0xff, 0x10, 0x90, 0xfe, 0xff, 0x14, 0x90, 0xfe, 0xff,
  0x18, 0x90, 0xfe, 0xff, 0x1c, 0x90, 0xfe, 0xff, 0x20, 0x90, 0xfe, 0xff,
  0x24, 0x90, 0xfe, 0xff, 0x28, 0x90, 0xfe, 0xff, 0x2c, 0x90, 0xfe, 0xff,
  0x30, 0x90, 0xfe, 0xff, 0x34, 0x90, 0xfe, 0xff, 0x38, 0x90, 0xfe, 0xff,
  0x3c, 0x90, 0xfe, 0xff, 0x40, 0x90, 0xfe, 0xff, 0x44, 0x90, 0xfe, 0xff,
  0x48, 0x90, 0xfe, 0xff, 0x4c, 0x90, 0xfe, 0xff, 0x50, 0x90, 0xfe, 0xff,
  0x54, 0x90, 0xfe, 0xff, 0x58, 0x90, 0xfe, 0xff, 0x5c, 0x90, 0xfe, 0xff,
  0x60, 0x90, 0xfe, 0xff, 0x64, 0x90, 0xfe, 0xff, 0x68, 0x90, 0xfe, 0xff,
  0x6c, 0x90, 0xfe, 0xff, 0x70, 0x90, 0xfe, 0xff, 0x74, 0x90, 0xfe, 0xff,
  0x78, 0x90, 0xfe, 0xff, 0x7c, 0x90, 0xfe, 0xff, 0x80, 0x90, 0xfe, 0xff,
  0x84, 0x90, 0xfe, 0xff, 0x88, 0x90, 0xfe, 0xff, 0x8c, 0x90, 0xfe, 0xff,
  0x90, 0x90, 0xfe, 0xff, 0x94, 0x90, 0xfe, 0xff, 0x98, 0x90, 0xfe, 0xff,
  0x9c, 0x90, 0xfe, 0xff, 0xa0, 0x90, 0xfe, 0xff, 0xa4, 0x90, 0xfe, 0xff,
  0xa8, 0x90, 0xfe, 0xff, 0xac, 0x90, 0xfe, 0xff, 0xb0, 0x90, 0xfe, 0xff,
  0xb4, 0x90, 0xfe, 0xff, 0xb8, 0x90, 0xfe, 0xff, 0xbc, 0x90, 0xfe, 0xff,
  0xc0, 0x90, 0xfe, 0xff, 0xc4, 0x90, 0xfe, 0xff, 0xc8, 0x90, 0xfe, 0xff,
  0xcc, 0x90, 0xfe, 0xff, 0xd0, 0x90, 0xfe, 0xff, 0xd4, 0x90, 0xfe, 0xff,
  0xd8, 0x90, 0xfe, 0xff, 0xdc, 0x90, 0xfe, 0xff, 0xe0, 0x90, 0xfe, 0xff,
  0xe4, 0x90, 0xfe, 0xff, 0xe8, 0x90, 0xfe, 0xff, 0xec, 0x90, 0xfe, 0xff,
  0xf0, 0x90, 0xfe, 0xff, 0xf4, 0x90, 0xfe, 0xff, 0xf8, 0x90, 0xfe, 0xff,
  0xfc, 0x90, 0xfe, 0xff, 0x00, 0x91, 0xfe, 0xff, 0x04, 0x91, 0xfe, 0xff,
  0x08, 0x91, 0xfe, 0xff, 0x0c, 0x91, 0xfe, 0xff, 0x10, 0x91, 0xfe, 0xff,
  0x14, 0x91, 0xfe, 0xff, 0x18, 0x91, 0xfe, 0xff, 0x1c, 0x91, 0xfe, 0xff,
  0x20, 0x91, 0xfe, 0xff, 0x24, 0x91, 0xfe, 0xff, 0x28, 0x91, 0xfe, 0xff,
  0x2c, 0x91, 0xfe, 0xff, 0x30, 0x91, 0xfe, 0xff, 0x34, 0x91, 0xfe, 0xff,
  0x38, 0x91, 0xfe, 0xff, 0x3c, 0x91, 0xfe, 0xff, 0x40, 0x91, 0xfe, 0xff,
  0x44, 0x91, 0xfe, 0xff, 0x48, 0x91, 0xfe, 0xff, 0x4c, 0x91, 0xfe, 0xff,
  0x50, 0x91, 0xfe, 0xff, 0x54, 0x91, 0xfe, 0xff, 0x58, 0x91, 0xfe, 0xff,
  0x5c, 0x91, 0xfe, 0xff, 0x60, 0x91, 0xfe, 0xff, 0x64, 0x91, 0xfe, 0xff,
  0x68, 0x91, 0xfe, 0xff, 0x6c, 0x91, 0xfe, 0xff, 0x70, 0x91, 0xfe, 0xff,
  0x74, 0x91, 0xfe, 0xff, 0x78, 0x91, 0xfe, 0xff, 0x7c, 0x91, 0xfe, 0xff,
  0x80, 0x91, 0xfe, 0xff, 0x84, 0x91, 0xfe, 0xff, 0x88, 0x91, 0xfe, 0xff,
  0x8c, 0x91, 0xfe, 0xff, 0x90, 0x91, 0xfe, 0xff, 0x94, 0x91, 0xfe, 0xff,
  0x98, 0x91, 0xfe, 0xff, 0x9c, 0x91, 0xfe, 0xff, 0xa0, 0x91, 0xfe, 0xff,
  0xa4, 0x91, 0xfe, 0xff, 0xa8, 0x91, 0xfe, 0xff, 0xac, 0x91, 0xfe, 0xff,
  0xb0, 0x91, 0xfe, 0xff, 0xb4, 0x91, 0xfe, 0xff, 0xb8, 0x91, 0xfe, 0xff,
  0xbc, 0x91, 0xfe, 0xff, 0xc0, 0x91, 0xfe, 0xff, 0xc4, 0x91, 0xfe, 0xff,
  0xc8, 0x91, 0xfe, 0xff, 0xcc, 0x91, 0xfe, 0xff, 0xd0, 0x91, 0xfe, 0xff,
  0xd4, 0x91, 0xfe, 0xff, 0xd8, 0x91, 0xfe, 0xff, 0xdc, 0x91, 0xfe, 0xff,
  0xe0, 0x91, 0xfe, 0xff, 0xe4, 0x91, 0xfe, 0xff, 0xe8, 0x91, 0xfe, 0xff,
  0xec, 0x91, 0xfe, 0xff, 0xf0, 0x91, 0xfe, 0xff, 0xf4, 0x91, 0xfe, 0xff,
  0xf8, 0x91, 0xfe, 0xff, 0xfc, 0x91, 0xfe, 0xff, 0x00, 0x92, 0xfe, 0xff,
  0x04, 0x92, 0xfe, 0xff, 0x08, 0x92, 0xfe, 0xff, 0x0c, 0x92, 0xfe, 0xff,
  0x10, 0x92, 0xfe, 0xff, 0x14, 0x92, 0xfe, 0xff, 0x18, 0x92, 0xfe, 0xff,
  0x1c, 0x92, 0xfe, 0xff, 0x20, 0x92, 0xfe, 0xff, 0x24, 0x92, 0xfe, 0xff,
  0x28, 0x92, 0xfe, 0xff, 0x2c, 0x92, 0xfe, 0xff, 0x30, 0x92, 0xfe, 0xff,
  0x34, 0x92, 0xfe, 0xff, 0x38, 0x92, 0xfe, 0xff, 0x3c, 0x92, 0xfe, 0xff,
  0x40, 0x92, 0xfe, 0xff, 0x44, 0x92, 0xfe, 0xff, 0x48, 0x92, 0xfe, 0xff,
  0x4c, 0x92, 0xfe, 0xff, 0x50, 0x92, 0xfe, 0xff, 0x54, 0x92, 0xfe, 0xff,
  0x58, 0x92, 0xfe, 0xff, 0x5c, 0x92, 0xfe, 0xff, 0x60, 0x92, 0xfe, 0xff,
  0x64, 0x92, 0xfe, 0xff, 0x68, 0x92, 0xfe, 0xff, 0x6c, 0x92, 0xfe, 0xff,
  0x70, 0x92, 0xfe, 0xff, 0x74, 0x92, 0xfe, 0xff, 0x78, 0x92, 0xfe, 0xff,
  0x7c, 0x92, 0xfe, 0xff, 0x80, 0x92, 0xfe, 0xff, 0x84, 0x92, 0xfe, 0xff,
  0x88, 0x92, 0xfe, 0xff, 0x8c, 0x92, 0xfe, 0xff, 0x90, 0x92, 0xfe, 0xff,
  0x94, 0x92, 0xfe, 0xff, 0x98, 0x92, 0xfe, 0xff, 0x9c, 0x92, 0xfe, 0xff,
  0xa0, 0x92, 0xfe, 0xff, 0xa4, 0x92, 0xfe, 0xff, 0xa8, 0x92, 0xfe, 0xff,
  0xac, 0x92, 0xfe, 0xff, 0xb0, 0x92, 0xfe, 0xff, 0xb4, 0x92, 0xfe, 0xff,
  0xb8, 0x92, 0xfe, 0xff, 0xbc, 0x92, 0xfe, 0xff, 0xc0, 0x92, 0xfe, 0xff,
  0xc4, 0x92, 0xfe, 0xff, 0xc8, 0x92, 0xfe, 0xff, 0xcc, 0x92, 0xfe, 0xff,
  0xd0, 0x92, 0xfe, 0xff, 0xd4, 0x92, 0xfe, 0xff, 0xd8, 0x92, 0xfe, 0xff,
  0x1a, 0x67, 0xff, 0xff, 0x04, 0x00, 0x00, 0x00, 0x04, 0x00, 0x00, 0x00,
  0xff, 0xff, 0xff, 0xff, 0x2a, 0x67, 0xff, 0xff, 0x04, 0x00, 0x00, 0x00,
  0x08, 0x00, 0x00, 0x00, 0x00, 0x00, 0x00, 0x00, 0x00, 0x00, 0x00, 0x00,
  0x3e, 0x67, 0xff, 0xff, 0x04, 0x00, 0x00, 0x00, 0x08, 0x00, 0x00, 0x00,
  0x00, 0x00, 0x00, 0x00, 0x20, 0x00, 0x00, 0x00, 0x52, 0x67, 0xff, 0xff,
  0x04, 0x00, 0x00, 0x00, 0x08, 0x00, 0x00, 0x00, 0x01, 0x00, 0x00, 0x00,
  0x01, 0x00, 0x00, 0x00, 0x66, 0x67, 0xff, 0xff, 0x04, 0x00, 0x00, 0x00,
  0x08, 0x00, 0x00, 0x00, 0x00, 0x00, 0x00, 0x00, 0x40, 0x00, 0x00, 0x00,
  0x7a, 0x67, 0xff, 0xff, 0x04, 0x00, 0x00, 0x00, 0x04, 0x00, 0x00, 0x00,
  0x00, 0x00, 0x80, 0x3f, 0x4c, 0x93, 0xfe, 0xff, 0x8e, 0x67, 0xff, 0xff,
  0x04, 0x00, 0x00, 0x00, 0x04, 0x00, 0x00, 0x00, 0x01, 0x00, 0x00, 0x00,
  0x9e, 0x67, 0xff, 0xff, 0x04, 0x00, 0x00, 0x00, 0x0c, 0x00, 0x00, 0x00,
  0x01, 0x00, 0x00, 0x00, 0x00, 0x00, 0x00, 0x00, 0x02, 0x00, 0x00, 0x00,
  0xb6, 0x67, 0xff, 0xff, 0x04, 0x00, 0x00, 0x00, 0x04, 0x00, 0x00, 0x00,
  0x00, 0x00, 0x00, 0x00, 0xc6, 0x67, 0xff, 0xff, 0x04, 0x00, 0x00, 0x00,
  0x04, 0x00, 0x00, 0x00, 0x20, 0x00, 0x00, 0x00, 0xd6, 0x67, 0xff, 0xff,
  0x04, 0x00, 0x00, 0x00, 0x00, 0x30, 0x00, 0x00, 0x8a, 0x51, 0xfc, 0x3c,
  0xc8, 0x86, 0x89, 0x3e, 0x94, 0x61, 0xf3, 0xbd, 0x6e, 0x96, 0x1d, 0x3d,
  0x96, 0xe5, 0x7c, 0x3e, 0x32, 0x6d, 0x90, 0xbe, 0x51, 0x19, 0xa5, 0xbe,
  0x5b, 0x65, 0x09, 0xbe, 0xdd, 0x38, 0x05, 0xbd, 0x59, 0x9f, 0x71, 0x3e,
  0x6f, 0x2f, 0x15, 0x3e, 0xc3, 0x1a, 0xdc, 0x3d, 0x86, 0x72, 0xde, 0xbc,
  0x63, 0xe2, 0xcf, 0xbd, 0x18, 0xf2, 0x8e, 0x3e, 0xe3, 0xe1, 0xd4, 0xbd,
  0x82, 0x78, 0x51, 0x3e, 0x3f, 0x90, 0x62, 0x3e, 0xcf, 0x9a, 0xc0, 0x3c,
  0x00, 0xd8, 0x8a, 0x3e, 0x39, 0x6d, 0x17, 0xbe, 0xa5, 0xe3, 0xcd, 0xbc,
  0x4e, 0x16, 0x55, 0xbd, 0xbe, 0x35, 0x99, 0xbd, 0x9b, 0xeb, 0xef, 0xbc,
  0xfb, 0xea, 0x85, 0xbd, 0xfb, 0xcf, 0x37, 0x3e, 0x53, 0xf2, 0xbe, 0x3d,
  0x85, 0xfc, 0x34, 0xbe, 0x58, 0xc4, 0x21, 0xbe, 0xd4, 0x0b, 0x65, 0x3e,
  0x4c, 0xa8, 0xf0, 0x3d, 0xd7, 0x39, 0xbc, 0x3e, 0x62, 0x61, 0x8b, 0xbe,
  0x37, 0x4a, 0xfb, 0x3d, 0x0c, 0x42, 0xc5, 0x3d, 0x7a, 0x17, 0xc7, 0x3e,
  0x5f, 0x80, 0x48, 0xbc, 0x84, 0x08, 0x44, 0x3e, 0x68, 0x84, 0xcc, 0xbe,
  0xbe, 0x5a, 0x8e, 0x3e, 0x51, 0xcd, 0x80, 0x3e, 0x59, 0x2e, 0xb4, 0xbd,
  0x15, 0x2a, 0x6f, 0x3e, 0x3c, 0xb7, 0x92, 0x3e, 0x1d, 0x10, 0xaa, 0xbe,
  0x21, 0x80, 0x3c, 0x3d, 0xf3, 0x00, 0x5e, 0xbe, 0x96, 0x11, 0xdb, 0x3e,
  0x83, 0x54, 0xf5, 0x3d, 0x7d, 0xeb, 0x14, 0x3e, 0x41, 0xa0, 0xc6, 0x3d,
  0xda, 0xa3, 0xdb, 0xbe, 0x1a, 0xfc, 0xbb, 0xbe, 0xba, 0xd9, 0xc3, 0x3c,
  0x40, 0x94, 0xbf, 0xbe, 0x54, 0x6a, 0x29, 0xbe, 0x2a, 0x9c, 0xa4, 0x3e,
  0xdc, 0x86, 0x29, 0x3c, 0x65, 0x47, 0x42, 0x3e, 0xa5, 0x43, 0xd0, 0x3e,
  0x53, 0x86, 0xdb, 0x3e, 0x96, 0x27, 0xb9, 0xbb, 0x91, 0xd7, 0x1e, 0x3e,
  0x64, 0xe4, 0x5f, 0x3e, 0x35, 0xb4, 0x2d, 0xbd, 0xcc, 0xc8, 0x0c, 0x3e,
  0x51, 0xb3, 0x8d, 0x3d, 0xb7, 0x7b, 0xc0, 0x3d, 0xb4, 0x90, 0x6f, 0x3a,
  0xa4, 0xc7, 0xe8, 0x3c, 0x94, 0xc4, 0xa1, 0xbe, 0xd4, 0x74, 0x1f, 0xbe,
  0xa8, 0xd1, 0x4e, 0x3c, 0xce, 0xfa, 0x36, 0x3e, 0x20, 0xd2, 0xd4, 0xbd,
  0xe1, 0x27, 0x00, 0x3e, 0xb9, 0xc7, 0xc6, 0xbb, 0x07, 0xd1, 0x51, 0xbe,
  0x23, 0x36, 0xf6, 0x3c, 0x8d, 0xbe, 0xfd, 0x3b, 0xdf, 0x83, 0x2b, 0xbe,
  0x37, 0x63, 0x79, 0xbe, 0xf4, 0x8e, 0xa6, 0x3d, 0x07, 0x5c, 0x89, 0xbe,
  0x98, 0x72, 0xec, 0xbd, 0x8a, 0x83, 0x2f, 0x3d, 0xf5, 0xec, 0x37, 0xbe,
  0xc0, 0x40, 0x8b, 0x3d, 0x09, 0x36, 0xf6, 0x3d, 0x61, 0x81, 0x70, 0x3c,
  0xf8, 0x06, 0x4f, 0xbe, 0xd4, 0xab, 0xa7, 0xbc, 0x54, 0x4c, 0x1d, 0x3c,
  0x77, 0x3a, 0x10, 0xbe, 0x30, 0xeb, 0x23, 0x3e, 0xeb, 0x56, 0x98, 0x3e,
  0xc4, 0xa6, 0xc6, 0xbd, 0x70, 0x72, 0xa2, 0xbb, 0xa0, 0xe7, 0x7d, 0x3d,
  0xa2, 0xf2, 0x2b, 0x3e, 0x7a, 0x8e, 0xbe, 0x3c, 0x91, 0xf9, 0x04, 0xbe,
  0xb0, 0x98, 0xe9, 0xbd, 0xdf, 0x1b, 0x99, 0x3d, 0x20, 0x84, 0x02, 0x3e,
  0xbb, 0xae, 0xd8, 0xbe, 0x53, 0x81, 0x04, 0x3e, 0xcb, 0x37, 0x62, 0xbc,
  0x68, 0xe6, 0x74, 0xbd, 0xd9, 0x0d, 0xb9, 0x3e, 0x2a, 0x00, 0xa1, 0x3d,
  0xea, 0xe6, 0xa4, 0xba, 0x0e, 0x33, 0x76, 0x3e, 0x5d, 0x6c, 0x17, 0x3d,
  0xd2, 0xc8, 0x12, 0xbd, 0x7c, 0x9a, 0x4d, 0x3e, 0xec, 0xba, 0x6d, 0x3d,
  0x2d, 0xbc, 0x0d, 0xbe, 0x8c, 0x52, 0xf2, 0xbd, 0xcb, 0xcf, 0x92, 0xbc,
  0x88, 0xcc, 0x0e, 0x3e, 0xfe, 0x5f, 0x0e, 0x3e, 0x58, 0x58, 0x78, 0x3e,
  0x03, 0x55, 0x5f, 0x3e, 0xfe, 0xf6, 0x31, 0xbe, 0x45, 0x3d, 0x8b, 0x3e,
  0xda, 0xdf, 0x0a, 0xbe, 0x2c, 0x5f, 0x8c, 0xbb, 0x2e, 0xe2, 0x07, 0x3e,
  0x09, 0xa0, 0x83, 0xbe, 0x57, 0xa1, 0x42, 0xbd, 0x8d, 0x3a, 0x70, 0xbe,
  0x77, 0x3d, 0x69, 0x3e, 0x39, 0xa3, 0x94, 0xbb, 0x8c, 0x41, 0x38, 0x3e,
  0xb0, 0x95, 0x4e, 0xbe, 0xb7, 0xa5, 0xb1, 0xbd, 0x6c, 0x0c, 0x78, 0x3e,
  0x7a, 0xec, 0x4c, 0xbe, 0x65, 0xf1, 0x3d, 0xbe, 0x62, 0x6f, 0x28, 0x3e,
  0x03, 0x03, 0xb2, 0x3d, 0xa1, 0xb1, 0x04, 0x3e, 0xab, 0xc5, 0x0a, 0xbe,
  0x1b, 0xb9, 0x42, 0xbe, 0xb6, 0xd5, 0x78, 0xbe, 0xe5, 0x91, 0xc4, 0xbd,
  0xb7, 0x47, 0xfe, 0xbb, 0xf2, 0x77, 0x91, 0x3e, 0xf5, 0x64, 0x77, 0xbe,
  0x65, 0x04, 0x46, 0x3e, 0x95, 0x48, 0x9e, 0xbd, 0xe4, 0xd0, 0x8e, 0xbe,
  0xf5, 0x8a, 0xf8, 0xbd, 0xe9, 0x53, 0x2a, 0xbe, 0x40, 0x90, 0x4b, 0xbe,
  0x7e, 0x1b, 0xe8, 0xbd, 0xdd, 0xae, 0x98, 0x3d, 0x41, 0x27, 0x5c, 0xbe,
  0x3b, 0x87, 0x33, 0x3e, 0xf5, 0xeb, 0xd5, 0x3d, 0x19, 0x66, 0xc6, 0xbd,
  0x52, 0xa6, 0x37, 0x3d, 0x57, 0x90, 0xfc, 0x3c, 0x4b, 0xd2, 0x97, 0xbd,
  0x1e, 0x9e, 0x53, 0xbe, 0x34, 0x84, 0xfb, 0xbd, 0xb9, 0x51, 0x99, 0xbd,
  0x25, 0x70, 0x86, 0xbd, 0x34, 0x49, 0xf6, 0x3c, 0xc2, 0x64, 0x27, 0xbd,
  0x61, 0xf3, 0xcb, 0xbd, 0xfb, 0x27, 0x0d, 0xbe, 0x6d, 0x7b, 0x37, 0x3e,
  0x19, 0x82, 0x57, 0x3e, 0x9f, 0x39, 0xb6, 0x3c, 0x96, 0x40, 0x54, 0xbd,
  0x1a, 0x01, 0x13, 0xbd, 0x97, 0x75, 0x36, 0xbd, 0xf8, 0xfd, 0x8e, 0xbb,
  0xe1, 0xd4, 0x2f, 0xbe, 0xe5, 0x25, 0xdb, 0xbc, 0xac, 0x28, 0xe3, 0x3b,
  0xbf, 0x48, 0x84, 0xbd, 0x7a, 0x44, 0x6c, 0x3e, 0xd7, 0x63, 0x35, 0x3d,
  0x77, 0x87, 0x0b, 0x3d, 0x73, 0x82, 0xc3, 0x3c, 0xab, 0x35, 0x3f, 0x3e,
  0x1c, 0x9a, 0xe0, 0x3e, 0x98, 0x9c, 0x01, 0x3e, 0xbb, 0x95, 0x8c, 0x3e,
  0xfd, 0x9f, 0xe5, 0x3d, 0x64, 0xaf, 0x89, 0x3d, 0x1f, 0x87, 0xd2, 0x3e,
  0x9c, 0x04, 0x80, 0x3e, 0xfe, 0xd4, 0xf0, 0xbd, 0xfb, 0x16, 0x57, 0xbc,
  0xea, 0x39, 0xd2, 0xbe, 0x9d, 0x2c, 0xac, 0x3e, 0xbd, 0xfc, 0x44, 0x3e,
  0x30, 0x79, 0xb7, 0xbd, 0xaf, 0xda, 0xb0, 0x3e, 0x0d, 0xc2, 0xe4, 0x3e,
  0x4f, 0xfe, 0xce, 0xbe, 0x50, 0x93, 0x84, 0x3e, 0x26, 0x42, 0x9f, 0xbe,
  0x9e, 0xfa, 0xab, 0x3e, 0x52, 0x1f, 0xfc, 0x3e, 0x00, 0xe4, 0xd7, 0xbd,
  0x01, 0xcf, 0xac, 0x3e, 0x8f, 0x06, 0x9d, 0xbe, 0x13, 0x79, 0x5b, 0xbe,
  0x0d, 0xf4, 0x55, 0x3e, 0x57, 0x28, 0xca, 0xbe, 0x19, 0x8b, 0xa3, 0xbd,
  0x46, 0x6e, 0xdb, 0x3e, 0x80, 0xbd, 0x44, 0x3e, 0x86, 0x20, 0x88, 0x3e,
  0xe5, 0x3a, 0x99, 0x3e, 0x16, 0xe1, 0x2d, 0x3e, 0xd3, 0x2f, 0x09, 0xbe,
  0xf6, 0xf7, 0x96, 0x3e, 0x5f, 0x6c, 0x1a, 0x3e, 0x5a, 0x42, 0x6f, 0x3d,
  0x61, 0x1b, 0x8c, 0x3d, 0xb8, 0x03, 0x3c, 0x3e, 0x51, 0x7c, 0x24, 0x3e,
  0x80, 0x65, 0x76, 0x3e, 0x7e, 0xd2, 0xbc, 0xbe, 0x98, 0x88, 0x78, 0xbe,
  0xed, 0x87, 0x2c, 0x3e, 0x14, 0xa8, 0xed, 0xbd, 0x96, 0x7b, 0x87, 0xbd,
  0x2c, 0xe8, 0x26, 0x3e, 0x4c, 0xae, 0x91, 0x3d, 0x0a, 0xec, 0x12, 0xbd,
  0xe6, 0x25, 0x03, 0x3f, 0xda, 0x66, 0xb6, 0xbe, 0x41, 0xcc, 0x20, 0x3e,
  0xd3, 0xbf, 0x21, 0x3e, 0x58, 0x71, 0xe5, 0xbc, 0x77, 0xeb, 0x13, 0x3f,
  0xf1, 0xc2, 0xb4, 0xbd, 0x2e, 0x02, 0xea, 0xbd, 0x37, 0x55, 0x60, 0x3c,
  0xf2, 0x4b, 0xac, 0xbd, 0xa7, 0x80, 0xca, 0xbe, 0x6a, 0xbc, 0x5c, 0x3e,
  0x2a, 0x07, 0xe4, 0x3e, 0xd3, 0x27, 0x89, 0x3e, 0x1d, 0xcd, 0xb1, 0x3e,
  0x29, 0x45, 0xc9, 0x3d, 0x0b, 0xc4, 0xb2, 0x3e, 0x0c, 0x27, 0x76, 0x3e,
  0xdd, 0x3b, 0x6e, 0xbd, 0xff, 0xce, 0xf7, 0xbd, 0x4d, 0x88, 0x74, 0x3e,
  0x5e, 0xfb, 0x06, 0x3e, 0x43, 0xd7, 0x61, 0x3e, 0x49, 0xac, 0x88, 0x3d,
  0xcf, 0xaa, 0xb0, 0x3d, 0x93, 0xb5, 0xec, 0xbe, 0x8c, 0x48, 0xdf, 0x3e,
  0x5f, 0x03, 0x54, 0x3e, 0x95, 0xd7, 0x2d, 0xbe, 0x55, 0xd9, 0xb0, 0x3e,
  0xce, 0xab, 0xe7, 0xba, 0xdd, 0x88, 0x8f, 0xbe, 0x5c, 0x71, 0x3a, 0x3e,
  0x2b, 0xc0, 0xd0, 0xbd, 0x90, 0x0b, 0xaf, 0x3e, 0xdc, 0x9a, 0x53, 0x3e,
  0x33, 0xad, 0xa9, 0x3e, 0xf8, 0x77, 0x1a, 0x3e, 0x03, 0x69, 0xf4, 0xbd,
  0x08, 0xc6, 0x39, 0xbe, 0xf6, 0x91, 0xf5, 0x3c, 0x9b, 0x64, 0xc0, 0xbc,
  0x80, 0xa2, 0x11, 0xbe, 0x14, 0x7e, 0x20, 0x3e, 0x98, 0x71, 0xac, 0x3e,
  0xa9, 0xc8, 0x4a, 0x3e, 0x6b, 0xee, 0xf2, 0x3e, 0x06, 0xc9, 0xf2, 0x3e,
  0xbd, 0x88, 0x1f, 0xbd, 0xfe, 0x67, 0x9f, 0x3d, 0x31, 0xab, 0x89, 0x3e,
  0x42, 0x77, 0x88, 0xbd, 0x66, 0xa7, 0xcf, 0x3d, 0xe0, 0x24, 0x5a, 0xbd,
  0x4f, 0xf3, 0x56, 0x3e, 0xfd, 0xff, 0xa3, 0x3c, 0xb1, 0x49, 0xd0, 0x3d,
  0xa1, 0x80, 0x95, 0x3d, 0x31, 0xdf, 0xfa, 0x3d, 0xda, 0xb2, 0x87, 0xbd,
  0x6c, 0xf0, 0x94, 0xbb, 0xdf, 0x0c, 0x41, 0x3d, 0x1c, 0x24, 0x3f, 0x3e,
  0xb3, 0x82, 0x32, 0xbe, 0xcc, 0xa7, 0x0e, 0xbd, 0x47, 0x4f, 0xb2, 0xbd,
  0xd1, 0x9c, 0x86, 0x3d, 0x78, 0xe7, 0x9c, 0x3c, 0x32, 0x7c, 0xde, 0x3b,
  0xb0, 0xbe, 0x3d, 0xbe, 0xcc, 0xe6, 0xfe, 0xbc, 0x9e, 0xc3, 0x02, 0xbe,
  0xde, 0x87, 0x20, 0xbe, 0x51, 0x04, 0xd1, 0x3d, 0x5c, 0xb6, 0x24, 0x3e,
  0xeb, 0x14, 0x3d, 0xbd, 0x93, 0x34, 0x78, 0xbd, 0x31, 0x49, 0x9e, 0x3c,
  0x26, 0x38, 0x5c, 0x3c, 0xc1, 0x2e, 0x2b, 0x3e, 0x4a, 0x14, 0xfe, 0xbc,
  0x1b, 0xd3, 0x40, 0x3e, 0xd6, 0xba, 0xba, 0x3e, 0xe0, 0x79, 0x64, 0x3d,
  0xba, 0x1f, 0xba, 0x3e, 0xf3, 0x3e, 0xf9, 0x3e, 0x26, 0x4e, 0xd2, 0x3e,
  0xeb, 0x09, 0xc4, 0xbe, 0xc9, 0x02, 0xba, 0xbe, 0x29, 0x78, 0x98, 0xbe,
  0xaf, 0x53, 0x9b, 0x3e, 0xe4, 0x01, 0xd6, 0x3e, 0x0d, 0xf8, 0x90, 0xbe,
  0x13, 0xfa, 0xac, 0x3e, 0x71, 0xca, 0x53, 0x3e, 0x13, 0xfc, 0xbc, 0xbe,
  0xf2, 0x42, 0xea, 0x3e, 0x0a, 0xf4, 0x99, 0xbe, 0x63, 0x44, 0x26, 0x3d,
  0x7f, 0xb2, 0x91, 0x3e, 0xdd, 0x91, 0x8b, 0x3c, 0x99, 0xf0, 0x9d, 0x3e,
  0xde, 0x9f, 0x13, 0xbf, 0x2f, 0x85, 0x02, 0xbf, 0xbd, 0xca, 0x3f, 0x3e,
  0x9e, 0x43, 0xe5, 0xbe, 0x79, 0x78, 0x74, 0xbe, 0x34, 0x74, 0xe9, 0x3e,
  0x1d, 0xc7, 0xa0, 0x3e, 0x99, 0xe3, 0x39, 0x3e, 0x89, 0x9e, 0xf6, 0x3e,
  0x19, 0xae, 0x56, 0x3e, 0x53, 0x57, 0x65, 0x3e, 0xbd, 0x5a, 0x6a, 0x3e,
  0x94, 0xf4, 0x75, 0x3e, 0xdf, 0x87, 0xab, 0x3d, 0x54, 0x1e, 0xc1, 0x3e,
  0x28, 0xaa, 0x09, 0x3f, 0x23, 0xac, 0xa9, 0x3e, 0xf5, 0x03, 0x73, 0xbe,
  0xc1, 0xed, 0x8c, 0xbd, 0xf2, 0xb5, 0x7a, 0xbe, 0xc9, 0x1c, 0x8b, 0x3e,
  0x42, 0x8a, 0x9e, 0x3e, 0xa5, 0x01, 0x35, 0xbe, 0xd0, 0xd9, 0xc2, 0x3e,
  0x1f, 0xe1, 0x8a, 0x3e, 0x4b, 0x08, 0x01, 0xbf, 0x1e, 0x58, 0x8e, 0x3e,
  0xab, 0xdb, 0xd6, 0xbe, 0x83, 0xee, 0x9b, 0x3e, 0xd2, 0x98, 0x07, 0x3f,
  0x53, 0x0a, 0xa1, 0x3d, 0x14, 0x11, 0xa3, 0x3e, 0x70, 0x0f, 0x88, 0xbe,
  0xda, 0x15, 0xdb, 0xbe, 0x8e, 0xa4, 0x2f, 0x3e, 0xb4, 0x6b, 0xa3, 0xbe,
  0x99, 0x44, 0x9a, 0xbe, 0xce, 0x23, 0x70, 0x3e, 0xe0, 0x81, 0x87, 0x3e,
  0x1d, 0xa6, 0xd7, 0x3d, 0xe3, 0x26, 0xe3, 0x3e, 0x71, 0x62, 0x45, 0x3c,
  0x23, 0x9c, 0x14, 0x3e, 0xbc, 0x89, 0xd1, 0x3e, 0xb3, 0x9c, 0x2a, 0x3e,
  0xe0, 0x4a, 0xb3, 0xbe, 0x9c, 0xf6, 0x78, 0x3e, 0x6b, 0xad, 0x12, 0x3e,
  0xe8, 0x60, 0x09, 0x3e, 0x47, 0x8a, 0xf6, 0x3c, 0xf5, 0x9c, 0x65, 0x3c,
  0xaa, 0x65, 0x5e, 0xbe, 0xef, 0xb6, 0x93, 0x3e, 0x7b, 0xdc, 0xa1, 0x3e,
  0x83, 0x64, 0xf8, 0xbb, 0x3a, 0x22, 0xe1, 0x3d, 0xab, 0xfd, 0x88, 0x3e,
  0x38, 0x37, 0xa1, 0x3d, 0xd9, 0xca, 0x5e, 0xbe, 0xe0, 0x15, 0xba, 0xbd,
  0xac, 0x3b, 0xd7, 0x3e, 0x99, 0x0f, 0xa3, 0x3d, 0x1d, 0x96, 0x2b, 0xbe,
  0xb9, 0xb4, 0x3d, 0x3e, 0x45, 0x08, 0x71, 0xbe, 0xcd, 0x88, 0x6e, 0xbe,
  0x1a, 0x1f, 0x40, 0x3e, 0x65, 0xed, 0xb9, 0xbc, 0xab, 0xfe, 0x84, 0x3e,
  0x0c, 0x90, 0x97, 0x3d, 0xa6, 0xaf, 0x94, 0x3d, 0x44, 0xee, 0x26, 0x3e,
  0x83, 0xaf, 0x43, 0x3e, 0x12, 0x16, 0xa6, 0x3e, 0xee, 0x4a, 0x44, 0xbe,
  0xda, 0x67, 0xd8, 0x3e, 0x3a, 0x84, 0xd4, 0x3b, 0x67, 0x62, 0x15, 0xbd,
  0x91, 0x3d, 0x90, 0xbc, 0x58, 0x39, 0x9a, 0x3e, 0x67, 0x79, 0x4a, 0xbc,
  0xc3, 0xcb, 0x6f, 0x3e, 0xb8, 0x5f, 0x08, 0xbd, 0xea, 0x34, 0x2e, 0xbd,
  0x8c, 0x32, 0x8b, 0x3c, 0xf1, 0xca, 0x16, 0xbe, 0x18, 0x4c, 0x9f, 0xbe,
  0xcd, 0x0a, 0x03, 0x3e, 0x4d, 0x7c, 0x0f, 0xbe, 0x67, 0xc7, 0x80, 0xbd,
  0xff, 0x92, 0xfe, 0x3d, 0xe5, 0x6f, 0x60, 0xbe, 0x29, 0x79, 0x7a, 0xbd,
  0xaa, 0xb2, 0x40, 0x3e, 0xaa, 0x75, 0xa4, 0x3e, 0x33, 0xcd, 0x01, 0xbd,
  0x0d, 0x4f, 0xe6, 0xbd, 0x36, 0x7a, 0xef, 0xbd, 0x2b, 0x00, 0x36, 0x3c,
  0xe8, 0x97, 0xb9, 0x3b, 0x4e, 0x02, 0xeb, 0x3c, 0x22, 0xe0, 0x9c, 0x3d,
  0xc3, 0x5c, 0x2d, 0x3e, 0x90, 0x1e, 0xcd, 0x3d, 0x0b, 0xd4, 0x17, 0x3e,
  0x44, 0xf8, 0xd9, 0x3d, 0xe4, 0xeb, 0x07, 0x3e, 0x7f, 0x5b, 0x38, 0x3e,
  0x05, 0x14, 0x29, 0x3e, 0xaa, 0x26, 0x52, 0x3d, 0xe3, 0xf3, 0xc3, 0x3e,
  0x9c, 0xb1, 0x2d, 0x3d, 0x2e, 0x25, 0x1b, 0xbc, 0xfe, 0x68, 0x3e, 0xbe,
  0xfa, 0xed, 0x99, 0xbd, 0x6c, 0xe5, 0x97, 0xbe, 0x04, 0x7e, 0x40, 0xbd,
  0x3e, 0xa5, 0x55, 0x3e, 0xb2, 0xae, 0x44, 0x3d, 0x0c, 0xc1, 0xca, 0x3d,
  0xab, 0xa3, 0xf3, 0x3e, 0x93, 0x48, 0x43, 0xbe, 0x63, 0x13, 0x0f, 0xbe,
  0xaf, 0x8f, 0xc7, 0xbd, 0xdc, 0x4a, 0xd6, 0x3e, 0xfd, 0x51, 0x80, 0x3e,
  0xcf, 0x6a, 0x5f, 0x3d, 0x0f, 0x2a, 0x15, 0xbe, 0x41, 0x67, 0x9b, 0xbe,
  0xad, 0x97, 0xb2, 0xbe, 0xe0, 0x83, 0x73, 0x3e, 0xf1, 0x7e, 0x9f, 0xbe,
  0x5b, 0x53, 0x89, 0x3d, 0x62, 0x08, 0x6a, 0x3e, 0xc4, 0x34, 0x3d, 0x3e,
  0x48, 0xf3, 0x5d, 0x3e, 0x86, 0x80, 0x27, 0x3e, 0x43, 0x0b, 0x80, 0x3d,
  0x45, 0x22, 0x47, 0xbe, 0xf1, 0xcf, 0x4a, 0x3d, 0xfc, 0x21, 0xea, 0xbc,
  0x29, 0x83, 0x68, 0x3e, 0x9e, 0xb7, 0xfb, 0xbc, 0x59, 0xd8, 0x70, 0xbe,
  0x1e, 0x4d, 0x16, 0x3d, 0x5d, 0x7a, 0xc1, 0x3d, 0x8e, 0xce, 0x34, 0xbe,
  0x93, 0x57, 0x8a, 0x3d, 0x2d, 0x40, 0x42, 0xbd, 0xf2, 0x62, 0x99, 0x3d,
  0xd2, 0x3c, 0x06, 0x3c, 0xbf, 0x22, 0x1c, 0x3c, 0xba, 0xf6, 0x49, 0xba,
  0x26, 0x3f, 0x29, 0xbe, 0xed, 0x6f, 0x89, 0xbd, 0xd1, 0x78, 0x8b, 0xbd,
  0xa7, 0x95, 0xf7, 0xbd, 0x79, 0x68, 0x3c, 0xbd, 0xcb, 0xed, 0x01, 0xbe,
  0x1b, 0x55, 0x4c, 0x3e, 0x1e, 0x54, 0x9d, 0xbd, 0xf2, 0xdb, 0xd3, 0xbc,
  0xd5, 0xea, 0xd3, 0xbb, 0x98, 0x45, 0xb8, 0x3d, 0x34, 0x26, 0x07, 0xbd,
  0x2c, 0xaa, 0x84, 0x3d, 0xfc, 0x26, 0x55, 0xbd, 0xc9, 0x86, 0x55, 0xbe,
  0x83, 0x05, 0x01, 0xbe, 0xfa, 0xda, 0x5b, 0xbe, 0x6e, 0xee, 0x63, 0x3e,
  0x6e, 0x97, 0x5a, 0xbe, 0xc1, 0xf8, 0xd0, 0x3e, 0x8b, 0xed, 0x0a, 0x3e,
  0x1a, 0x88, 0xe1, 0x3e, 0xdb, 0x73, 0x2b, 0x3f, 0x51, 0x8e, 0x21, 0x3e,
  0x71, 0xed, 0x6a, 0xbd, 0x4b, 0x8a, 0x93, 0xbe, 0xcd, 0x3e, 0xe4, 0xbe,
  0xb8, 0xbc, 0x90, 0x3e, 0x9e, 0xc6, 0xc3, 0x3e, 0xed, 0x1f, 0x94, 0x3d,
  0x37, 0x2e, 0x83, 0x3e, 0xc6, 0x11, 0x4d, 0x3e, 0xaf, 0xe7, 0x9c, 0xbe,
  0x98, 0xb8, 0xef, 0x3e, 0x65, 0x91, 0x3c, 0xbe, 0xac, 0x05, 0x82, 0x3e,
  0x89, 0x7c, 0x76, 0x3e, 0x70, 0x63, 0x60, 0x3e, 0x26, 0x00, 0xd7, 0x3e,
  0xdc, 0x9f, 0xc7, 0xbe, 0x61, 0xef, 0xf2, 0xbe, 0x72, 0x8d, 0xd8, 0x3d,
  0x96, 0xa5, 0xd2, 0xbd, 0x3d, 0xf1, 0xca, 0xbe, 0x70, 0xa9, 0xc6, 0x3e,
  0x1e, 0xc7, 0xb0, 0x3e, 0x3f, 0xa1, 0xa9, 0x3e, 0x19, 0xf7, 0x03, 0x3f,
  0x8f, 0x7b, 0xbc, 0x3e, 0x0c, 0x9f, 0x04, 0x3e, 0x58, 0x6e, 0x56, 0x3e,
  0x0a, 0x0a, 0xe4, 0x3d, 0xdd, 0xdb, 0x05, 0x3d, 0x56, 0xd8, 0x3b, 0xbd,
  0x72, 0x0d, 0xea, 0x3d, 0x07, 0xd1, 0x62, 0xbd, 0xf6, 0xfc, 0xdd, 0xbd,
  0x16, 0x21, 0x8e, 0xbd, 0xb6, 0xe2, 0x9c, 0x3d, 0x9d, 0x55, 0x51, 0xbe,
  0x81, 0x9a, 0x66, 0xbc, 0x3c, 0x5b, 0x53, 0x3e, 0xa1, 0x34, 0xaf, 0xbd,
  0x0f, 0xee, 0xac, 0xbe, 0x5e, 0xaa, 0xc2, 0x3b, 0x3b, 0xe7, 0x8d, 0xbb,
  0x1c, 0x53, 0x1d, 0x3e, 0x84, 0x84, 0x19, 0xbe, 0xa9, 0x56, 0x85, 0x3c,
  0xac, 0xbf, 0x07, 0x3e, 0x92, 0xf8, 0xb7, 0x3c, 0x41, 0xc9, 0xdd, 0x3d,
  0xa6, 0x40, 0x66, 0x3d, 0x1f, 0xc0, 0x09, 0xbe, 0x6d, 0x6c, 0x3c, 0x3b,
  0x2b, 0xe2, 0xc6, 0x3c, 0xb4, 0x5c, 0x44, 0xbb, 0x3c, 0x39, 0x27, 0xbd,
  0xf4, 0x1a, 0x93, 0xbd, 0x4b, 0x0b, 0x67, 0xbe, 0xc4, 0x3d, 0xaf, 0xbe,
  0xda, 0x3d, 0x22, 0x3e, 0xc4, 0x38, 0x33, 0xbc, 0x76, 0x3a, 0x8d, 0x3e,
  0x56, 0x71, 0x55, 0x3e, 0x72, 0x71, 0x89, 0x3e, 0x6f, 0x9a, 0x80, 0xbc,
  0x18, 0x16, 0x76, 0x3e, 0x6a, 0xee, 0x0c, 0x3d, 0xc4, 0x27, 0x16, 0xbd,
  0x39, 0x37, 0xab, 0xbe, 0x20, 0xf5, 0x86, 0x3e, 0x1c, 0x3d, 0xa5, 0x3d,
  0x73, 0xfb, 0x0d, 0x3d, 0x0c, 0x52, 0x57, 0x3e, 0x93, 0x10, 0x1e, 0xbe,
  0x95, 0xd5, 0x88, 0xbe, 0x15, 0xdc, 0x7a, 0x3e, 0x2d, 0x3f, 0x13, 0xbe,
  0x36, 0xee, 0x65, 0x3e, 0x02, 0xd5, 0x96, 0x3e, 0x46, 0x4e, 0x9d, 0x3d,
  0x71, 0x87, 0x21, 0x3e, 0x9b, 0x60, 0x81, 0xbe, 0x03, 0xcd, 0x46, 0xbe,
  0x54, 0xa8, 0xf3, 0x3d, 0x5b, 0xed, 0x62, 0xbc, 0xb1, 0xfb, 0x46, 0xbe,
  0x4f, 0x43, 0xd7, 0x3e, 0xdb, 0x21, 0xe6, 0x3e, 0x92, 0x13, 0x61, 0x3e,
  0xec, 0x4d, 0x47, 0x3e, 0xec, 0xe5, 0x0b, 0x3d, 0x76, 0xd6, 0x20, 0x3e,
  0x5b, 0x2a, 0xcc, 0x3e, 0x00, 0xa4, 0xbe, 0x3e, 0x9f, 0x20, 0x00, 0xbe,
  0x3d, 0xf1, 0x90, 0x3e, 0xd0, 0x27, 0xaf, 0x3d, 0x06, 0x02, 0x9b, 0x3e,
  0x99, 0xb4, 0x5d, 0x3c, 0xa0, 0xf2, 0x9f, 0x3c, 0xd1, 0x95, 0x1d, 0xbe,
  0xa0, 0x51, 0x03, 0x3f, 0xf1, 0xba, 0x4c, 0x3e, 0x4d, 0xc1, 0x27, 0xbe,
  0x70, 0x25, 0x71, 0x3e, 0x8e, 0x5b, 0xc1, 0x3e, 0xd1, 0x97, 0xb4, 0xbe,
  0xb3, 0x25, 0x3b, 0x3e, 0xa1, 0xa1, 0x94, 0xbe, 0x6a, 0x65, 0x07, 0x3f,
  0xc6, 0xcd, 0x4d, 0x3e, 0xd0, 0x7a, 0x2e, 0xbc, 0x03, 0x0a, 0x27, 0xbc,
  0x1b, 0x27, 0xa0, 0xbe, 0xee, 0xdb, 0xa5, 0xbe, 0x79, 0xc0, 0x21, 0x3e,
  0xcd, 0xa7, 0x8e, 0xbe, 0xbd, 0x7a, 0x15, 0x3e, 0x2a, 0x07, 0x8a, 0x3e,
  0x06, 0x33, 0x58, 0x3e, 0x54, 0x4c, 0x10, 0x3e, 0x79, 0xac, 0x08, 0x3f,
  0x92, 0x6a, 0x0c, 0x3f, 0x41, 0xe2, 0x41, 0xbe, 0x9b, 0xdb, 0x66, 0x3e,
  0x6d, 0xc7, 0x1d, 0x3e, 0x2a, 0xa1, 0xd6, 0x3d, 0x48, 0xc3, 0x11, 0x3e,
  0xb7, 0xf5, 0x04, 0x3e, 0x62, 0xf4, 0x65, 0x3e, 0x16, 0x80, 0xbf, 0xbc,
  0x59, 0x51, 0x4c, 0x3e, 0xbc, 0x8f, 0xab, 0xbc, 0x6a, 0xa2, 0xa5, 0x3d,
  0x7e, 0xcd, 0xf4, 0xbd, 0xd5, 0x48, 0x62, 0xbd, 0x0e, 0x1a, 0x45, 0x3e,
  0x4c, 0x22, 0x51, 0xbd, 0x93, 0xa6, 0x75, 0xbe, 0xab, 0xcc, 0xae, 0x3d,
  0x91, 0x77, 0xc3, 0xbc, 0x0f, 0xe4, 0x20, 0x3d, 0xf6, 0x77, 0xf9, 0x3d,
  0x6e, 0xe1, 0xa0, 0xbd, 0xbf, 0x24, 0x74, 0x3e, 0x76, 0x7b, 0xa3, 0xbe,
  0xd8, 0x8d, 0x1a, 0xbd, 0x34, 0xa3, 0xf9, 0xbd, 0x93, 0x5b, 0xa2, 0xbe,
  0xcf, 0x90, 0x7e, 0xbe, 0x66, 0x5e, 0xca, 0x3d, 0x52, 0x7e, 0x87, 0x3d,
  0xa3, 0x6d, 0xe0, 0x3d, 0xae, 0x36, 0x00, 0x3e, 0x3f, 0x17, 0x8b, 0x3d,
  0x8d, 0x25, 0x62, 0x3e, 0x3a, 0x99, 0x0f, 0x3e, 0xe7, 0x4a, 0x94, 0x3d,
  0x45, 0x4c, 0x8b, 0xbd, 0xa4, 0x01, 0x31, 0x3e, 0x08, 0x65, 0x98, 0xbd,
  0x6e, 0x0b, 0x38, 0x3e, 0xc2, 0xfd, 0x37, 0x3e, 0xb1, 0x8b, 0x07, 0x3c,
  0xcf, 0xb1, 0x38, 0xbd, 0x50, 0xde, 0xc3, 0x3d, 0xc0, 0x67, 0xc5, 0x3d,
  0x6a, 0x81, 0x84, 0x3e, 0xa0, 0x09, 0x9e, 0xbc, 0x5b, 0xd5, 0x01, 0xbe,
  0x08, 0x34, 0xaa, 0xbd, 0x99, 0x34, 0x96, 0x3e, 0xc6, 0xb2, 0xab, 0x3d,
  0x6a, 0xdc, 0x0e, 0xbd, 0xa3, 0xb9, 0x8a, 0xbd, 0xe1, 0x44, 0x95, 0xbd,
  0xb3, 0x7d, 0xc6, 0x3e, 0xf4, 0x11, 0xcd, 0xbd, 0xf7, 0xd2, 0x24, 0xbe,
  0xf0, 0x84, 0x80, 0x3e, 0xf4, 0x01, 0xfa, 0x3d, 0x8b, 0xa1, 0x74, 0xbe,
  0xeb, 0x7c, 0xd1, 0xbc, 0x4f, 0x75, 0x8d, 0x3e, 0x6b, 0x25, 0x59, 0xbd,
  0xf4, 0xb6, 0x06, 0x3e, 0x62, 0xf1, 0xc7, 0x3d, 0x45, 0x84, 0x1f, 0x3d,
  0x5c, 0xc0, 0xf5, 0x3d, 0x74, 0x7e, 0xeb, 0x3d, 0x63, 0xdf, 0x68, 0x3e,
  0x43, 0xe6, 0xa5, 0x3e, 0x99, 0x3d, 0xf4, 0x3e, 0xe1, 0xcd, 0x99, 0x3e,
  0xb6, 0x03, 0xe3, 0xbe, 0x82, 0x32, 0x0d, 0xbe, 0xa5, 0x62, 0xad, 0xbe,
  0x8d, 0x52, 0x9d, 0x3e, 0xbe, 0x9c, 0xd9, 0x3e, 0xe8, 0x8c, 0x7e, 0xbe,
  0x94, 0x24, 0x84, 0x3e, 0x4e, 0xc3, 0x5b, 0x3e, 0xaf, 0x91, 0xce, 0xbe,
  0x95, 0xdb, 0x31, 0x3e, 0x6c, 0xa3, 0x92, 0xbe, 0xd1, 0x19, 0x33, 0x3e,
  0xb0, 0x61, 0xaa, 0x3e, 0x2d, 0x04, 0xb5, 0xbd, 0xb2, 0x03, 0x72, 0x3d,
  0x3a, 0xcf, 0xe2, 0xbe, 0xc3, 0xe9, 0x61, 0xbe, 0x16, 0x0c, 0x92, 0x3e,
  0x92, 0xbe, 0x9b, 0xbe, 0x76, 0x34, 0x88, 0x3c, 0xd0, 0x7f, 0x5c, 0x3e,
  0x71, 0x70, 0x85, 0x3e, 0x60, 0x96, 0xc7, 0x3e, 0xc2, 0x58, 0xc1, 0x3d,
  0x3a, 0xed, 0x37, 0x3c, 0xbe, 0xc5, 0xd5, 0x3d, 0xc0, 0x41, 0xe7, 0x3e,
  0x83, 0x57, 0x87, 0x3e, 0x96, 0xae, 0x2a, 0x3d, 0x2d, 0xb6, 0x90, 0x3e,
  0xdc, 0x08, 0x58, 0x3e, 0xa1, 0x60, 0x48, 0x3e, 0x24, 0x6f, 0xfd, 0xbe,
  0xbb, 0xdc, 0x4a, 0x3d, 0x3a, 0x80, 0xc3, 0xbe, 0x43, 0x3f, 0x7f, 0x3e,
  0xf6, 0xef, 0xf5, 0x3e, 0x91, 0xe4, 0x12, 0xbe, 0x83, 0x02, 0x5b, 0x3e,
  0xf1, 0x15, 0xdd, 0x3e, 0x37, 0x52, 0x94, 0xbe, 0xe0, 0xcd, 0x3b, 0xbd,
  0xb3, 0xc6, 0x88, 0xbe, 0x61, 0x46, 0x56, 0x3e, 0x2f, 0xce, 0xa5, 0x3e,
  0x87, 0x88, 0xd7, 0x3d, 0xaa, 0x70, 0x81, 0xbe, 0xdc, 0x6d, 0x52, 0xbe,
  0x3b, 0x1a, 0xd1, 0xbe, 0x11, 0x57, 0x3a, 0x3e, 0x2c, 0x24, 0x97, 0xbe,
  0x19, 0x31, 0xdb, 0x3d, 0x38, 0xa6, 0x28, 0x3e, 0xd1, 0xa9, 0xae, 0x3e,
  0x5e, 0x92, 0x24, 0x3e, 0x8c, 0xce, 0x95, 0x3d, 0x4a, 0x96, 0x9b, 0x3e,
  0xab, 0xc9, 0x28, 0x3d, 0xf8, 0x68, 0xad, 0x3e, 0xb6, 0x34, 0xee, 0x3d,
  0xbd, 0x2f, 0x92, 0xbe, 0xa2, 0xe0, 0x71, 0x3d, 0xfc, 0xb8, 0x6c, 0x3e,
  0xf3, 0x16, 0x49, 0x3e, 0x25, 0x7a, 0xe4, 0xbb, 0x0b, 0x3e, 0xc3, 0x3e,
  0xba, 0x8e, 0x9e, 0xbd, 0x55, 0x21, 0x84, 0x3e, 0x9d, 0x8f, 0xa4, 0x3e,
  0xf0, 0xe3, 0x63, 0x3d, 0xe7, 0x8d, 0x0f, 0xbc, 0x1b, 0x3c, 0x8b, 0x3e,
  0xc3, 0x92, 0x87, 0xbe, 0xdb, 0xe4, 0x25, 0xbe, 0xfe, 0x2e, 0x5b, 0xbb,
  0xe3, 0x26, 0xf2, 0x3e, 0xa5, 0x58, 0x1e, 0x3e, 0x56, 0xf5, 0x33, 0xbe,
  0x47, 0x0c, 0x34, 0x3d, 0x99, 0x43, 0x9c, 0xbe, 0x7c, 0x36, 0xd2, 0xbe,
  0xc6, 0x00, 0x94, 0x3e, 0xcd, 0xb8, 0x47, 0xbe, 0x00, 0x8b, 0x82, 0x3e,
  0xa9, 0x11, 0x5b, 0x3e, 0xd7, 0x9e, 0xa4, 0x3d, 0xa6, 0xf8, 0x29, 0x3e,
  0xf7, 0x6f, 0xb9, 0x3e, 0xba, 0x0e, 0x9e, 0x3e, 0xd1, 0xcb, 0x98, 0xbe,
  0xed, 0xe9, 0x83, 0x3e, 0xfa, 0x9c, 0x49, 0x3e, 0x86, 0x54, 0x3e, 0xbd,
  0x7b, 0xe0, 0x0b, 0x3e, 0x31, 0x7c, 0x8f, 0x3d, 0x87, 0xe7, 0xc0, 0x3d,
  0x9a, 0x0d, 0x20, 0xbe, 0x1d, 0x3d, 0xc8, 0x3c, 0xf5, 0x58, 0x93, 0x3d,
  0x7a, 0x81, 0x0a, 0x3d, 0xf5, 0xb2, 0x21, 0x3e, 0x3e, 0x74, 0x15, 0x3e,
  0xad, 0xd9, 0x01, 0x3e, 0x6e, 0x62, 0xa9, 0xbc, 0x4e, 0x3c, 0x8e, 0xbe,
  0x34, 0xa9, 0x31, 0x3d, 0x42, 0x53, 0xb9, 0xbe, 0xb6, 0xc0, 0x80, 0x3d,
  0xcf, 0x41, 0xcb, 0x3d, 0x35, 0x79, 0x4a, 0x3e, 0x53, 0x48, 0xdf, 0xbd,
  0x1c, 0x93, 0x87, 0xbe, 0x0f, 0xbe, 0xaa, 0xbe, 0x33, 0x27, 0x42, 0xbb,
  0xf0, 0x97, 0xb4, 0xbe, 0xb4, 0xb9, 0x44, 0x3e, 0xdd, 0xbb, 0x4d, 0x3e,
  0x66, 0x0c, 0x49, 0x3d, 0xc8, 0xea, 0x57, 0x3e, 0x29, 0xdc, 0x03, 0x3e,
  0xda, 0x60, 0xc0, 0xbc, 0xa9, 0x05, 0x59, 0x3e, 0x91, 0x5c, 0x09, 0x3c,
  0xcc, 0x88, 0x9e, 0x3d, 0xaa, 0xe4, 0x80, 0x3d, 0x7c, 0x4f, 0x13, 0x3e,
  0x40, 0xab, 0x00, 0x3e, 0xfd, 0x44, 0x89, 0x3e, 0xc1, 0x5f, 0x3c, 0x3c,
  0x89, 0x22, 0x3d, 0xbd, 0xd2, 0x84, 0xdf, 0x3d, 0x0e, 0x68, 0x1b, 0xbe,
  0xaa, 0xe7, 0x02, 0x3d, 0x39, 0x23, 0xef, 0x3d, 0xff, 0xfe, 0x9e, 0x3d,
  0x4c, 0x29, 0xa4, 0xbd, 0x65, 0x23, 0x0a, 0x3d, 0xc9, 0x91, 0xd3, 0xbc,
  0xf5, 0x4d, 0x46, 0x3d, 0xe3, 0x42, 0x74, 0x3d, 0xe4, 0x58, 0x3e, 0x3e,
  0xeb, 0x10, 0x1a, 0xbc, 0x45, 0xf9, 0x90, 0xbb, 0x1b, 0xf0, 0x4d, 0xbd,
  0x11, 0x70, 0x57, 0xbd, 0xb8, 0xf9, 0x1c, 0x3d, 0x89, 0xbd, 0x80, 0xbd,
  0xee, 0x86, 0xa2, 0x3d, 0x24, 0x2f, 0x0a, 0xbe, 0xea, 0xd7, 0xce, 0xbc,
  0x5e, 0x78, 0x90, 0xbd, 0xbe, 0xa5, 0x9c, 0xbc, 0x2d, 0x10, 0x1e, 0xbd,
  0x04, 0xe2, 0x5e, 0x3e, 0x26, 0x7e, 0x92, 0x3b, 0x89, 0x66, 0x75, 0x3e,
  0x27, 0xd8, 0xfc, 0x3c, 0x1a, 0xdd, 0xdb, 0x3e, 0x2c, 0xc5, 0xc2, 0x3e,
  0x88, 0x9a, 0x57, 0x3e, 0x2d, 0xfa, 0x8e, 0xbe, 0xfd, 0x7d, 0x9a, 0xbd,
  0x56, 0xb7, 0x95, 0xbe, 0x50, 0x82, 0x8f, 0x3e, 0x9c, 0xdb, 0x5f, 0x3e,
  0x87, 0x8a, 0xc0, 0xbe, 0xa8, 0xf4, 0xdf, 0x3e, 0xee, 0xcc, 0xf1, 0x3d,
  0x5d, 0xfa, 0xf8, 0xbe, 0x02, 0x64, 0x23, 0x3e, 0x88, 0xd1, 0xd3, 0xbd,
  0xae, 0x0d, 0xe1, 0x3e, 0x87, 0x09, 0xff, 0x3e, 0xc0, 0xa9, 0x3f, 0xbc,
  0x3e, 0xe1, 0x3a, 0x3c, 0x91, 0x03, 0xb1, 0xbe, 0xbb, 0xc2, 0xc3, 0xbe,
  0xb4, 0x9d, 0xa4, 0x3d, 0x8c, 0xa8, 0x07, 0xbf, 0x3e, 0x22, 0x29, 0xbc,
  0x77, 0xd2, 0x84, 0x3e, 0x36, 0xc1, 0x01, 0x3f, 0xef, 0x24, 0x70, 0x3e,
  0x28, 0x7a, 0x0b, 0x3f, 0xf8, 0xac, 0x85, 0x3e, 0xc4, 0x5d, 0xdc, 0x3e,
  0x13, 0x2f, 0xd8, 0x3e, 0xb9, 0x55, 0xed, 0x3d, 0x22, 0xa9, 0x34, 0xbe,
  0x7e, 0xbb, 0x90, 0x3e, 0x45, 0xe9, 0xb8, 0x3e, 0x46, 0x32, 0x80, 0x3e,
  0x91, 0x92, 0x8a, 0x3b, 0x8d, 0x27, 0x90, 0x3c, 0x94, 0xbc, 0xa3, 0xbe,
  0xf6, 0x93, 0x16, 0x3e, 0x7e, 0x79, 0x3a, 0x3e, 0xd9, 0xc2, 0x43, 0xbe,
  0x4a, 0x4e, 0x19, 0x3e, 0xd2, 0xa0, 0x3a, 0x3e, 0xcf, 0x14, 0xa0, 0xbe,
  0x21, 0xed, 0x86, 0x3e, 0x59, 0xed, 0x8b, 0xbe, 0x5e, 0x51, 0xcf, 0x3e,
  0x52, 0x04, 0x83, 0x3e, 0xad, 0x47, 0xe8, 0x3d, 0x8f, 0x27, 0x8d, 0x3d,
  0xec, 0xb7, 0xf0, 0xbe, 0x03, 0xef, 0x97, 0xbe, 0x43, 0xb6, 0x0b, 0x3e,
  0xe2, 0x15, 0x94, 0xbe, 0x22, 0x6f, 0x2d, 0xbd, 0x9f, 0xcb, 0xe9, 0x3d,
  0x5d, 0xc5, 0x99, 0x3e, 0x2a, 0xec, 0xb3, 0x3e, 0xe9, 0x32, 0x46, 0x3e,
  0x2d, 0xf1, 0xc9, 0x3d, 0x9e, 0x3a, 0x28, 0x3e, 0x95, 0x1c, 0x2e, 0x3d,
  0x31, 0x66, 0xf1, 0x3d, 0xa5, 0x51, 0x18, 0x3d, 0x36, 0xae, 0x45, 0x3e,
  0x9d, 0x07, 0x4b, 0x3e, 0x64, 0x2b, 0xd3, 0x3e, 0x0a, 0xcd, 0x3a, 0xbc,
  0xd2, 0x72, 0x2b, 0xbd, 0x84, 0xc1, 0xc2, 0xbe, 0x83, 0x7d, 0x55, 0x3e,
  0x39, 0x93, 0xca, 0x3d, 0x50, 0x1d, 0x37, 0xbe, 0xe3, 0x43, 0xa7, 0x3e,
  0xa0, 0x38, 0xb4, 0x3e, 0xc0, 0x04, 0x4c, 0xbe, 0xb5, 0x95, 0x39, 0x3e,
  0xe3, 0x31, 0x8e, 0xbd, 0x45, 0xd3, 0x73, 0x3e, 0x56, 0xb8, 0x1e, 0x3e,
  0x8f, 0x1e, 0x87, 0x3d, 0xd5, 0xf0, 0x1c, 0x3e, 0x46, 0xbc, 0x5e, 0xbe,
  0x3e, 0x97, 0xca, 0xbd, 0xba, 0x36, 0xc0, 0x3e, 0x19, 0x22, 0xb7, 0xbe,
  0x23, 0x6f, 0x6d, 0xbe, 0x43, 0x97, 0x8a, 0x3e, 0xbe, 0xe7, 0xbc, 0x3e,
  0xf3, 0xda, 0xc1, 0x3d, 0xa2, 0xb6, 0x06, 0x3f, 0x8a, 0x5d, 0xb7, 0x3e,
  0xaf, 0xb0, 0xdd, 0x3d, 0xb6, 0x0f, 0x1a, 0x3e, 0x5e, 0xd2, 0x33, 0x3d,
  0x3c, 0xc1, 0x16, 0xbe, 0x2e, 0xfb, 0x85, 0x3e, 0x50, 0x7f, 0x0a, 0x3e,
  0x1d, 0x54, 0x91, 0x3e, 0x6e, 0x3e, 0x5b, 0xbe, 0xcf, 0x31, 0xb4, 0x3d,
  0x50, 0x77, 0x6a, 0xbe, 0xd8, 0x7b, 0xba, 0x3e, 0x7f, 0x65, 0x00, 0x3e,
  0x40, 0x38, 0x6a, 0xbd, 0x1b, 0xca, 0x4b, 0x3e, 0xfb, 0x39, 0xcf, 0x3e,
  0x8a, 0x0a, 0x11, 0xbe, 0x3a, 0x8f, 0x16, 0x3d, 0x33, 0xd6, 0x32, 0xbe,
  0xf7, 0x46, 0x31, 0x3e, 0xc4, 0x76, 0x85, 0x3d, 0x3d, 0x7a, 0xc8, 0xbe,
  0x76, 0xd7, 0x28, 0x3e, 0xe4, 0x78, 0x33, 0xbe, 0xc3, 0x65, 0xc0, 0xbe,
  0xd6, 0x16, 0x7e, 0x3e, 0x62, 0x4a, 0xee, 0xbd, 0x43, 0xa9, 0xbc, 0x3d,
  0xc4, 0xff, 0x93, 0x3e, 0x15, 0x63, 0x37, 0x3e, 0x46, 0x90, 0x5f, 0x3e,
  0xc3, 0xe0, 0x84, 0x3e, 0x04, 0x71, 0x41, 0x3d, 0x77, 0x9b, 0xc2, 0xbd,
  0x5a, 0xd5, 0x67, 0x3e, 0x55, 0x5c, 0x07, 0x3e, 0x57, 0x51, 0x23, 0x3e,
  0x9f, 0xc8, 0x79, 0xbe, 0x4e, 0x82, 0x1f, 0x3d, 0xc2, 0x46, 0xb6, 0xbd,
  0xe5, 0x1b, 0xe7, 0x3d, 0xc6, 0x57, 0x44, 0x3d, 0xa7, 0x92, 0xf1, 0xbd,
  0x99, 0x48, 0xcf, 0x3c, 0x82, 0xb6, 0x31, 0xbe, 0xb1, 0xb3, 0x89, 0x3e,
  0x0c, 0x85, 0x92, 0xbd, 0x25, 0xbd, 0xef, 0xbe, 0x2a, 0xf4, 0x12, 0xbc,
  0x2d, 0xd8, 0xa5, 0x3e, 0xc1, 0xb3, 0xf5, 0x3d, 0x40, 0x1c, 0xed, 0xbd,
  0x55, 0x48, 0x28, 0xbe, 0xf3, 0x5e, 0x13, 0x3e, 0x2e, 0x0e, 0x6a, 0x3e,
  0xae, 0xb7, 0xa9, 0x3c, 0x0f, 0xde, 0xf1, 0x3d, 0xe8, 0xad, 0x69, 0xbe,
  0xfe, 0x8a, 0x17, 0x3e, 0xed, 0x0d, 0x3b, 0xbe, 0xc2, 0xd8, 0x3b, 0xbe,
  0xfa, 0x50, 0xda, 0x3d, 0xef, 0x15, 0xe3, 0xbc, 0x82, 0x26, 0x15, 0xbe,
  0xe9, 0x8e, 0x39, 0xbe, 0xba, 0x63, 0x92, 0x3e, 0xb8, 0x2d, 0xb3, 0x3c,
  0x23, 0x1c, 0x03, 0x3e, 0x37, 0xa6, 0x7c, 0x3c, 0x17, 0x19, 0x99, 0x3d,
  0x6d, 0x0d, 0xd4, 0x3d, 0xef, 0xf3, 0x20, 0xbe, 0x01, 0x85, 0x0a, 0xbe,
  0xa6, 0x5d, 0x8f, 0x3c, 0x7d, 0x56, 0x15, 0x3e, 0x3c, 0x9e, 0xba, 0xbc,
  0xc4, 0xd2, 0x39, 0x3d, 0xf3, 0x76, 0xca, 0xbd, 0xad, 0x3e, 0x97, 0xbd,
  0x9f, 0x1e, 0xa6, 0x3d, 0x5c, 0x59, 0x13, 0xbe, 0x75, 0xdc, 0xcf, 0x3d,
  0x9d, 0xbe, 0x9d, 0x3d, 0x53, 0x19, 0x63, 0x3d, 0x9b, 0x41, 0x5b, 0xbd,
  0x8a, 0x33, 0xef, 0xbd, 0x67, 0xa6, 0x1e, 0xbe, 0x55, 0x43, 0x02, 0x3e,
  0x1c, 0x02, 0xc7, 0x3d, 0x39, 0xe4, 0xc4, 0x3a, 0xb6, 0x0d, 0xcc, 0x3d,
  0x3b, 0x40, 0x15, 0x3e, 0xae, 0x25, 0x2c, 0xbc, 0xac, 0x89, 0x39, 0xbc,
  0xbe, 0x9a, 0x41, 0xbd, 0xa2, 0x9b, 0xa8, 0xbd, 0xa7, 0x7a, 0x83, 0xbe,
  0xd8, 0xf4, 0xdf, 0x3d, 0xb6, 0xf5, 0x24, 0xbe, 0x74, 0x0d, 0x0b, 0xbe,
  0x7e, 0x4d, 0x6d, 0x3e, 0x74, 0x8e, 0xf2, 0x3b, 0x11, 0xe0, 0x8a, 0x3d,
  0x26, 0xc8, 0xda, 0x3c, 0x14, 0x0f, 0xe7, 0xbe, 0x12, 0xdf, 0x35, 0xbe,
  0xc8, 0x10, 0x0a, 0x3e, 0xe1, 0x9e, 0x87, 0xbe, 0x3a, 0xcc, 0xb9, 0x3d,
  0xa1, 0x9f, 0x7c, 0xbd, 0x09, 0xac, 0x8a, 0xbc, 0x7f, 0x3e, 0xaa, 0xbe,
  0xa2, 0x63, 0xa0, 0xbd, 0xea, 0x55, 0x5a, 0x3e, 0x6f, 0xd9, 0x18, 0xbe,
  0x4d, 0xf3, 0x0a, 0xbe, 0x62, 0x63, 0xaf, 0x3d, 0x9a, 0x9b, 0xc6, 0xbd,
  0x48, 0x48, 0xbe, 0x3c, 0x14, 0x23, 0x37, 0x3c, 0xba, 0xd1, 0xaf, 0x3e,
  0x9f, 0xbf, 0x33, 0xbe, 0x67, 0xe6, 0x30, 0x3d, 0x84, 0xc9, 0xc9, 0xbc,
  0xdb, 0x97, 0xc6, 0x3d, 0x67, 0xb7, 0x4a, 0x3d, 0x1d, 0x4b, 0x47, 0x3e,
  0x9b, 0xc2, 0xe0, 0xbd, 0xe1, 0x65, 0x94, 0xbe, 0x0e, 0xb5, 0x88, 0x3e,
  0xd8, 0x9b, 0x4d, 0xbd, 0x4a, 0x6f, 0x08, 0xbe, 0x1f, 0xac, 0x00, 0x3e,
  0x8d, 0xcf, 0x6b, 0xbe, 0xe4, 0xc8, 0x86, 0xbd, 0x38, 0x47, 0x00, 0xbe,
  0x1f, 0xe5, 0x84, 0x3b, 0xb5, 0xed, 0xc9, 0xbe, 0x88, 0xde, 0xd4, 0x3d,
  0xf3, 0x95, 0x9c, 0xbd, 0x50, 0x5d, 0xd6, 0x3c, 0xcc, 0xc8, 0x75, 0x3e,
  0xf5, 0x7b, 0xa7, 0x3d, 0xc6, 0x6c, 0xf6, 0xbd, 0xca, 0xdc, 0x29, 0xbe,
  0xec, 0x2e, 0x8e, 0xbe, 0xd0, 0xa8, 0x94, 0x3c, 0x85, 0xc3, 0xcd, 0xbc,
  0x3c, 0x43, 0x8d, 0x3c, 0x7d, 0x03, 0x6d, 0xbd, 0x92, 0x4b, 0xe7, 0x3c,
  0x0e, 0x7f, 0xf3, 0x3c, 0xa5, 0x84, 0xed, 0x3d, 0x23, 0x52, 0x2f, 0xbe,
  0x75, 0xd3, 0xf7, 0x3d, 0x3d, 0x7c, 0x57, 0x3d, 0x4a, 0x8f, 0x8b, 0xbd,
  0xd4, 0x50, 0xbf, 0xbb, 0x45, 0x29, 0x19, 0xbe, 0x06, 0x33, 0xc3, 0xbd,
  0x14, 0xf7, 0x85, 0xbe, 0xe9, 0x00, 0x85, 0x3d, 0x90, 0x23, 0x46, 0xbe,
  0xb5, 0x32, 0x69, 0x3e, 0x16, 0xc4, 0x2e, 0xbe, 0xa6, 0x2f, 0x24, 0xbd,
  0x11, 0x1a, 0xb6, 0xbd, 0x52, 0x3f, 0xb3, 0xbd, 0x62, 0x59, 0xd1, 0xbc,
  0xfd, 0x89, 0x97, 0xbd, 0x7e, 0x74, 0xcc, 0x3d, 0x5a, 0xa3, 0x08, 0xbd,
  0x52, 0x9d, 0x3f, 0x3d, 0x88, 0xb6, 0x3b, 0xbd, 0xbe, 0x97, 0x17, 0x3e,
  0xd8, 0x9a, 0x85, 0xbd, 0x57, 0xdf, 0xaf, 0x3d, 0xc9, 0x8f, 0xce, 0x3d,
  0x62, 0x2f, 0x33, 0x3d, 0x25, 0x57, 0x74, 0x3c, 0x2b, 0xad, 0xf1, 0x3c,
  0x63, 0xfb, 0x78, 0x3d, 0xa8, 0x10, 0xc9, 0x3d, 0x8c, 0x8d, 0x20, 0xbe,
  0x1d, 0x95, 0x82, 0x3d, 0x56, 0x47, 0x75, 0x3d, 0x26, 0x64, 0x28, 0x3d,
  0x1f, 0xbc, 0x45, 0x3d, 0xb1, 0x1c, 0x03, 0xbe, 0x3d, 0x22, 0x83, 0x3a,
  0xc6, 0x3c, 0xed, 0xbc, 0x26, 0xfc, 0x19, 0xbe, 0x3f, 0xd6, 0xc2, 0xbd,
  0xda, 0x50, 0xcc, 0xbd, 0x01, 0x2a, 0x92, 0xbd, 0xb5, 0xf0, 0xf1, 0xbd,
  0x19, 0xfa, 0x13, 0x3d, 0x53, 0xc1, 0x41, 0xbe, 0x81, 0x31, 0x85, 0xbd,
  0x3c, 0xbd, 0x57, 0x3d, 0xa5, 0x16, 0xfe, 0xbc, 0x95, 0x1f, 0x92, 0xbe,
  0x63, 0x32, 0x3d, 0xbe, 0xbb, 0x0e, 0x13, 0x3e, 0xc6, 0xb8, 0x46, 0x3d,
  0x9f, 0x20, 0x17, 0xbd, 0x38, 0x66, 0x2c, 0xbd, 0x55, 0xfa, 0x3f, 0xbe,
  0xd4, 0xeb, 0x17, 0x3d, 0x0e, 0x2e, 0x34, 0xbc, 0xf0, 0xa0, 0xa1, 0xbd,
  0x6c, 0xed, 0x0e, 0xbe, 0x54, 0xc5, 0xa8, 0x3d, 0xa9, 0xa0, 0x3d, 0xbd,
  0xa8, 0xbd, 0x5a, 0x3d, 0x0b, 0xba, 0x02, 0xbe, 0x62, 0x2e, 0xad, 0x3d,
  0xfa, 0x46, 0x1b, 0x3c, 0xb9, 0xeb, 0x40, 0xbd, 0x7e, 0xcd, 0xc4, 0xbc,
  0x7f, 0x37, 0xe9, 0x3d, 0xf6, 0x57, 0xc7, 0xbb, 0x01, 0x66, 0x6f, 0xbc,
  0x17, 0xa9, 0x7c, 0x3d, 0x00, 0x61, 0x89, 0xbe, 0x2b, 0xb4, 0x99, 0xbc,
  0xfd, 0x54, 0x97, 0x3d, 0x9c, 0xe5, 0x34, 0xbd, 0xa6, 0x8e, 0xb0, 0xbd,
  0xbf, 0xe9, 0x1c, 0xbd, 0xd2, 0xd8, 0x12, 0x3c, 0x1e, 0x72, 0x68, 0xbc,
  0x07, 0xfa, 0xfe, 0xbd, 0x29, 0xd5, 0xab, 0x3c, 0xd9, 0xc2, 0xf6, 0x3d,
  0x86, 0xc2, 0x91, 0x3e, 0xcf, 0x7f, 0x4a, 0xbd, 0xaa, 0xb3, 0x71, 0xbd,
  0xbf, 0xbf, 0xb2, 0x3d, 0x00, 0xc0, 0xe5, 0x3c, 0xfa, 0x31, 0x2a, 0x3e,
  0x7f, 0x45, 0x2a, 0xbd, 0x4b, 0xac, 0x7a, 0xbb, 0x26, 0x82, 0x11, 0x3e,
  0xf5, 0xb2, 0x69, 0x3d, 0xc8, 0x96, 0x47, 0xbe, 0xba, 0xf4, 0xbc, 0xbc,
  0xde, 0x0e, 0x61, 0xbe, 0x7d, 0xc4, 0xc5, 0xbd, 0xae, 0x54, 0xe1, 0xbb,
  0xd8, 0x0e, 0xab, 0x3d, 0xbc, 0x85, 0x4f, 0x3d, 0x6a, 0x4a, 0x83, 0x3e,
  0xd2, 0x70, 0xd5, 0x3d, 0x7d, 0x14, 0x3a, 0xbd, 0x25, 0xcb, 0xb6, 0xbd,
  0x05, 0x4b, 0x97, 0x3d, 0xeb, 0xa2, 0x5c, 0xbe, 0x22, 0xec, 0x31, 0xbe,
  0x13, 0xe7, 0xad, 0xbd, 0x32, 0x41, 0xa6, 0x3e, 0x8b, 0xaf, 0x85, 0xbe,
  0xa8, 0xbb, 0x15, 0x3d, 0xd4, 0xac, 0x23, 0xbe, 0xcb, 0x58, 0x94, 0xbe,
  0xaa, 0x8c, 0x2a, 0xbe, 0xda, 0x36, 0xc0, 0x3d, 0x97, 0xf3, 0x90, 0xbe,
  0x66, 0x75, 0x4a, 0x3d, 0x10, 0x4d, 0xf3, 0xbd, 0xae, 0x96, 0x10, 0x3d,
  0xd4, 0x88, 0xde, 0xbd, 0x37, 0xe8, 0xa7, 0x3d, 0x36, 0xe2, 0xc9, 0x3e,
  0x65, 0xd0, 0x12, 0xbd, 0x6f, 0xd0, 0x30, 0xbd, 0x21, 0xff, 0x5c, 0x3e,
  0xe3, 0x6f, 0xbd, 0x3d, 0x5c, 0x73, 0xce, 0x3d, 0xd9, 0x8b, 0x69, 0xbb,
  0x28, 0xd0, 0x0f, 0x3e, 0xba, 0x02, 0xfb, 0xbd, 0x30, 0x5b, 0x6b, 0x3e,
  0xf0, 0x0b, 0x91, 0x3d, 0xbf, 0x0b, 0x96, 0xbc, 0xfe, 0x93, 0x54, 0x3d,
  0x42, 0x15, 0x8e, 0xbd, 0x1c, 0xfa, 0x14, 0xbd, 0x68, 0xfd, 0x8b, 0xbe,
  0xc5, 0x96, 0xaf, 0x3e, 0xd4, 0x01, 0x9f, 0x3b, 0x83, 0x9b, 0x80, 0xbd,
  0xf9, 0x8a, 0xd7, 0x3e, 0x00, 0x08, 0x99, 0xbb, 0x56, 0x8b, 0x99, 0x3d,
  0xb5, 0xa3, 0xdf, 0x3d, 0xff, 0xb8, 0x7e, 0xbe, 0xb6, 0x0f, 0x8e, 0xbe,
  0xda, 0x51, 0x9d, 0x3d, 0x9d, 0xf4, 0xbe, 0xbe, 0x5b, 0xb5, 0x38, 0x3e,
  0xac, 0x46, 0xe3, 0xbd, 0x94, 0x1c, 0xcd, 0x3d, 0xb4, 0x3f, 0xfa, 0xbc,
  0xdb, 0x8f, 0x91, 0xbd, 0x5b, 0x1a, 0x5f, 0x3e, 0x4f, 0xdb, 0x8b, 0xbe,
  0xc7, 0x89, 0xcd, 0x3d, 0x68, 0x89, 0x2b, 0xbe, 0xe3, 0x0a, 0x79, 0xbd,
  0x13, 0x6a, 0xbd, 0x3e, 0x83, 0x1c, 0x1d, 0xbd, 0x7e, 0x84, 0x9b, 0x3b,
  0x59, 0xa1, 0x60, 0xbe, 0xf8, 0x42, 0xc2, 0xbc, 0x1d, 0x54, 0x89, 0xbe,
  0x52, 0x57, 0xdb, 0x3d, 0x66, 0xc3, 0xf2, 0x3d, 0xe6, 0xc8, 0x62, 0xbc,
  0x96, 0xd8, 0x77, 0xbe, 0xab, 0x13, 0xf0, 0xbe, 0x62, 0x0b, 0x8e, 0x3e,
  0x4a, 0x45, 0x81, 0x3c, 0xfb, 0xea, 0x6d, 0xbe, 0xb2, 0x4f, 0xfe, 0x3d,
  0x2d, 0xc1, 0x55, 0xbe, 0x8d, 0x3d, 0x33, 0xbe, 0x29, 0x0a, 0xa1, 0x3d,
  0xbd, 0x66, 0x82, 0xbe, 0x08, 0xc2, 0xc4, 0xbe, 0x92, 0xba, 0x76, 0x3e,
  0x1d, 0x8b, 0xb2, 0xbe, 0xf2, 0x13, 0xe1, 0xbd, 0x27, 0xb6, 0xa5, 0x3e,
  0xe5, 0xf8, 0x3f, 0xbe, 0x8a, 0xaf, 0x6a, 0xbe, 0x6c, 0x19, 0x8d, 0xbd,
  0x3f, 0x0d, 0x21, 0x3e, 0xe4, 0xaf, 0x65, 0x3c, 0x19, 0xe6, 0x4c, 0xbe,
  0xdc, 0xf6, 0x24, 0x3e, 0xc7, 0x3c, 0x7c, 0xbe, 0x69, 0x71, 0xce, 0x3e,
  0xff, 0x0c, 0xab, 0xbd, 0x79, 0x85, 0x52, 0x3e, 0xe0, 0xd7, 0x28, 0xbe,
  0x2d, 0xbb, 0xb8, 0x3d, 0x02, 0x37, 0xb7, 0xbd, 0xb4, 0x91, 0xcf, 0xbd,
  0x20, 0x50, 0x30, 0xbc, 0x8a, 0x54, 0x3a, 0x3e, 0xc8, 0x06, 0x97, 0xbe,
  0x49, 0xa1, 0xfa, 0xbe, 0xc8, 0xa1, 0x5c, 0x3e, 0xae, 0xfe, 0x34, 0x3d,
  0xc7, 0xfd, 0xc1, 0xbd, 0xe0, 0xfb, 0x91, 0xbd, 0x71, 0x64, 0x13, 0x3e,
  0x09, 0x1e, 0x82, 0xbc, 0xa2, 0xc3, 0x10, 0xbe, 0x3e, 0xb0, 0x0a, 0xbe,
  0xe3, 0x2e, 0x03, 0xbe, 0x7a, 0x86, 0x83, 0xbc, 0x36, 0xfb, 0x5c, 0xbd,
  0xbf, 0xc8, 0xf0, 0xbd, 0x18, 0xbe, 0x58, 0x3e, 0xe2, 0x84, 0xe5, 0xbe,
  0xd3, 0x52, 0x39, 0x3e, 0xb2, 0xf2, 0x9b, 0xbb, 0xf6, 0xd5, 0xbd, 0xbd,
  0x36, 0xbc, 0xcc, 0xbd, 0x9c, 0x33, 0x9c, 0x3d, 0x52, 0xfb, 0x9a, 0xbd,
  0xa9, 0xa7, 0xf4, 0xbd, 0x01, 0xd2, 0x7a, 0x3c, 0x40, 0x80, 0x03, 0xbe,
  0x06, 0x4f, 0xaf, 0xbc, 0xc6, 0xe0, 0x9c, 0xbc, 0x1c, 0x9d, 0x79, 0xbd,
  0x24, 0x3a, 0xca, 0xbc, 0x36, 0xd2, 0x62, 0xbc, 0x81, 0x26, 0x77, 0x3d,
  0xc1, 0xce, 0xf5, 0xbd, 0x99, 0x52, 0xd2, 0x3d, 0xaf, 0x56, 0x9d, 0xbd,
  0xa6, 0x0b, 0x57, 0x3d, 0xec, 0x6e, 0x11, 0xbe, 0x24, 0x2e, 0xf0, 0xbd,
  0x33, 0x93, 0x32, 0xbe, 0xe7, 0xaa, 0x77, 0xbc, 0xe9, 0xee, 0x77, 0xbd,
  0xed, 0x2e, 0x05, 0xbd, 0x3d, 0x3b, 0x19, 0x3d, 0xa2, 0xc0, 0xab, 0x3e,
  0x46, 0xfe, 0x0d, 0xbe, 0x8a, 0x91, 0x00, 0x3e, 0xdb, 0xad, 0x00, 0xbc,
  0x7a, 0x68, 0x9b, 0x3c, 0xc2, 0x3d, 0xfa, 0xbc, 0x79, 0x4d, 0x46, 0x3d,
  0xd0, 0x8f, 0xd1, 0xbc, 0x04, 0x24, 0xd0, 0xbd, 0x62, 0x99, 0x10, 0x3e,
  0xf4, 0x3b, 0x1f, 0x3d, 0xc2, 0x27, 0x0e, 0x3e, 0xad, 0x46, 0x5b, 0xbe,
  0x1b, 0x02, 0xab, 0xbd, 0x7d, 0x35, 0x96, 0x3d, 0x0d, 0x69, 0x06, 0xbd,
  0x44, 0x71, 0x53, 0x3e, 0x10, 0xc4, 0xa6, 0x3d, 0xa9, 0xb4, 0x0e, 0x3e,
  0xb6, 0x27, 0x2d, 0x3d, 0x45, 0x62, 0x4b, 0x3d, 0x8e, 0x3e, 0x95, 0xbe,
  0x54, 0xa8, 0xb6, 0x3c, 0x03, 0xe9, 0xc5, 0x3d, 0xcc, 0x89, 0x83, 0xbd,
  0x04, 0x22, 0xde, 0xbd, 0xf7, 0xda, 0x65, 0xbe, 0x28, 0x62, 0x6d, 0x3e,
  0xbc, 0xa3, 0x2d, 0xbe, 0x75, 0x4c, 0xf7, 0x3d, 0x54, 0x6a, 0x03, 0x3d,
  0x41, 0x21, 0x81, 0x3d, 0x71, 0x00, 0x8e, 0xbe, 0xf7, 0x25, 0x3d, 0x3e,
  0xec, 0xd1, 0x17, 0x3e, 0xc8, 0x35, 0xe5, 0x3d, 0x12, 0x23, 0xef, 0x3b,
  0xc4, 0x17, 0x25, 0xbe, 0xc1, 0x97, 0x4a, 0xbe, 0xb9, 0x72, 0x71, 0xbc,
  0xe1, 0x9e, 0xb5, 0x3e, 0xd6, 0x9e, 0xa3, 0x3d, 0x9e, 0x5b, 0xb8, 0xbd,
  0xe2, 0x47, 0xb8, 0xbb, 0xe7, 0xd8, 0x56, 0x3d, 0x39, 0xef, 0x89, 0xbd,
  0x1f, 0xfd, 0xdf, 0xbc, 0xa0, 0x69, 0x9f, 0xbd, 0x2d, 0x87, 0x45, 0xbe,
  0x8c, 0x6c, 0x03, 0x3b, 0xda, 0x3f, 0xc1, 0xbd, 0xca, 0x0e, 0x32, 0x3d,
  0x30, 0xd5, 0x3b, 0x3c, 0xf3, 0x22, 0xb4, 0xbd, 0xd8, 0xea, 0x02, 0xbe,
  0xbc, 0x51, 0x40, 0xbe, 0xc7, 0x01, 0x41, 0x3e, 0xd3, 0x24, 0xc4, 0xbd,
  0x00, 0xf8, 0x7a, 0xbe, 0x41, 0x5d, 0x31, 0x3e, 0xe8, 0x71, 0x00, 0xbc,
  0xb0, 0xd7, 0x25, 0x3e, 0x09, 0xc9, 0xac, 0x3d, 0x16, 0xb8, 0x92, 0xbe,
  0x8b, 0x52, 0x33, 0xbd, 0x3e, 0xd2, 0x7a, 0x3e, 0x89, 0xa1, 0x77, 0xbe,
  0xac, 0x6e, 0xce, 0xbd, 0x87, 0xfa, 0x3c, 0x3d, 0xf8, 0xb2, 0x94, 0xbd,
  0xc9, 0x49, 0x17, 0xbd, 0x17, 0xd1, 0xb9, 0x3d, 0x95, 0xa2, 0xdc, 0x3c,
  0x21, 0xa8, 0xed, 0x3b, 0xde, 0xa6, 0xb0, 0xbd, 0x23, 0x2d, 0xae, 0xbd,
  0xb5, 0x6b, 0xdd, 0x3d, 0x69, 0x31, 0x30, 0x3d, 0x83, 0x1c, 0x3f, 0xbe,
  0x6b, 0x19, 0x49, 0x3c, 0xf7, 0xd0, 0x66, 0xbe, 0xbe, 0x60, 0x8e, 0x3d,
  0x8d, 0x55, 0x3b, 0x3e, 0x92, 0x26, 0xb3, 0x3d, 0x53, 0x66, 0xdf, 0xbd,
  0x2d, 0x96, 0x8a, 0xbe, 0xda, 0x06, 0x08, 0xbd, 0xc9, 0xab, 0xc5, 0xbe,
  0xa8, 0x86, 0xd5, 0x3d, 0x09, 0x1e, 0x27, 0xbc, 0x76, 0x7d, 0xb5, 0x3c,
  0x41, 0x50, 0xcc, 0xbd, 0xe7, 0x98, 0x2f, 0xbd, 0x5b, 0xb1, 0x2f, 0xbd,
  0xf8, 0x14, 0xdb, 0x3c, 0x96, 0x04, 0xda, 0xbc, 0xfb, 0xe6, 0xcf, 0xbb,
  0xdf, 0xb6, 0x4b, 0xbe, 0x3f, 0x81, 0xe1, 0xbd, 0x7d, 0xbf, 0x7e, 0x3e,
  0x9e, 0xd1, 0x96, 0xbd, 0xc7, 0x55, 0xc6, 0x3d, 0x7a, 0x97, 0x31, 0xbe,
  0x4b, 0x3f, 0x9b, 0x3c, 0xdd, 0x8f, 0x86, 0xbd, 0xd5, 0xcc, 0xda, 0xbd,
  0x48, 0xb1, 0x97, 0xbd, 0xa8, 0xd8, 0x46, 0x3d, 0xe0, 0x3c, 0xf6, 0x3c,
  0x22, 0x45, 0x53, 0xbd, 0x8f, 0x9d, 0x09, 0xbe, 0x18, 0x46, 0x82, 0xbe,
  0xec, 0xd8, 0x47, 0xba, 0x34, 0x21, 0xf3, 0x3c, 0x55, 0xcd, 0x0a, 0xbd,
  0xa7, 0x5c, 0x51, 0x3d, 0x1d, 0x3d, 0x02, 0xbd, 0x95, 0xfb, 0x9c, 0x3d,
  0xee, 0x4d, 0x4b, 0x3e, 0xbe, 0x1d, 0x06, 0x3e, 0x07, 0xdd, 0x93, 0xbd,
  0xc3, 0xcb, 0x6b, 0x3d, 0xde, 0x79, 0x7d, 0xbd, 0x01, 0x28, 0x4c, 0xbe,
  0x3c, 0xce, 0x27, 0x3d, 0x49, 0x9d, 0xc0, 0xbc, 0x74, 0xd2, 0x5d, 0xbe,
  0xbc, 0xf8, 0x3a, 0x3d, 0x32, 0x61, 0x16, 0xbd, 0x19, 0x76, 0x8e, 0x3d,
  0x5c, 0x29, 0xbe, 0xbd, 0xd2, 0xbc, 0x0f, 0xbd, 0x16, 0xdc, 0xcb, 0xbd,
  0x8d, 0xf1, 0xfb, 0xbc, 0x7d, 0xa0, 0xbc, 0xbc, 0xa1, 0x50, 0x2b, 0x3e,
  0xb3, 0x94, 0xb2, 0xbd, 0x90, 0xda, 0x45, 0x3e, 0xee, 0xd6, 0x8f, 0xbc,
  0x4a, 0x8d, 0xb2, 0x3d, 0x59, 0x92, 0x03, 0xbd, 0xba, 0xa0, 0x3b, 0x3d,
  0x10, 0xc3, 0xd1, 0x3d, 0xa1, 0xc4, 0x9a, 0x3c, 0xd2, 0xe7, 0x11, 0xbe,
  0x25, 0xfd, 0xc8, 0xbd, 0x4a, 0xcf, 0x28, 0xbc, 0xbe, 0x7c, 0x03, 0xbd,
  0xca, 0xee, 0x69, 0xbe, 0x1e, 0x49, 0xde, 0xbc, 0x4a, 0x4a, 0x75, 0x3d,
  0x79, 0x3a, 0xb6, 0x3d, 0x7f, 0x5f, 0xd9, 0xbd, 0x6e, 0xf4, 0xe0, 0x3b,
  0xe8, 0xf4, 0x86, 0xbd, 0x22, 0xee, 0x8b, 0xbd, 0xc5, 0x0f, 0x4d, 0x3d,
  0x60, 0x3d, 0x02, 0xbd, 0xf6, 0xb4, 0x48, 0xbc, 0xf3, 0x2b, 0x90, 0x3d,
  0xa6, 0x3b, 0xe9, 0x3d, 0xc7, 0xa9, 0x08, 0x3d, 0xad, 0xa2, 0x97, 0xbc,
  0x4f, 0xa3, 0x91, 0x3d, 0x4c, 0x97, 0x47, 0xbd, 0xe4, 0xf9, 0x9f, 0x3d,
  0xfa, 0x14, 0x13, 0x3e, 0x86, 0x7a, 0x8f, 0x3d, 0xe2, 0x36, 0x35, 0xbd,
  0xff, 0x29, 0x67, 0x3d, 0x62, 0x13, 0x16, 0xbc, 0x80, 0x53, 0x10, 0x3c,
  0xae, 0x4f, 0x27, 0xbe, 0x5e, 0x13, 0x1e, 0xbe, 0x07, 0xb5, 0xce, 0xbb,
  0xae, 0x6a, 0xc3, 0xbd, 0x78, 0xd9, 0x4c, 0x3d, 0x81, 0x19, 0x40, 0xbe,
  0x51, 0x09, 0x37, 0x3e, 0x0a, 0x96, 0x1c, 0x3d, 0x12, 0x02, 0x87, 0xbd,
  0x9d, 0x3f, 0x2b, 0xbe, 0xdb, 0x17, 0x08, 0xbd, 0xe3, 0x7d, 0xbd, 0x3e,
  0x30, 0xc0, 0x0e, 0x3e, 0x1e, 0x90, 0x90, 0x3d, 0xce, 0x49, 0x72, 0xbe,
  0x9a, 0x85, 0xd7, 0x3e, 0x9c, 0x8d, 0x31, 0xbe, 0x80, 0x18, 0x0e, 0x3d,
  0x76, 0x34, 0x37, 0xbe, 0xfe, 0x90, 0x2b, 0xbe, 0x4f, 0x18, 0xd1, 0xbe,
  0x8f, 0x8e, 0x21, 0x3e, 0x13, 0xa0, 0x48, 0xbe, 0x2a, 0xe1, 0x7f, 0x3c,
  0xc3, 0x95, 0x87, 0x3b, 0xf6, 0x1b, 0x33, 0xbe, 0x16, 0x5a, 0xb3, 0xbe,
  0x56, 0x0b, 0x8e, 0xbb, 0xda, 0x79, 0xcb, 0x3e, 0x88, 0x38, 0x8f, 0xbe,
  0x12, 0x51, 0x71, 0xbe, 0xc2, 0xd3, 0x85, 0xbb, 0x8a, 0x69, 0x0a, 0xbe,
  0x00, 0x13, 0x9a, 0x3e, 0x21, 0xaa, 0xaf, 0x3c, 0xfa, 0xbc, 0xa7, 0x3e,
  0x9b, 0x85, 0xb6, 0x3c, 0x3a, 0x3a, 0x07, 0xbd, 0x81, 0x6f, 0x2f, 0xbe,
  0x5a, 0xa7, 0x88, 0x3d, 0x57, 0x55, 0x15, 0xbd, 0x91, 0x63, 0xae, 0xbd,
  0x25, 0x88, 0xb5, 0xbe, 0xee, 0xb6, 0x0f, 0xbf, 0x90, 0x39, 0x9b, 0x3e,
  0x1c, 0xc3, 0xb0, 0xbd, 0x79, 0x3b, 0xa0, 0x3d, 0x6a, 0xee, 0xe3, 0x3c,
  0xa7, 0xbf, 0xd6, 0xbd, 0x70, 0x92, 0x47, 0x3d, 0x61, 0x7b, 0xbe, 0xbd,
  0x16, 0xf7, 0xc6, 0x3c, 0xce, 0xea, 0x51, 0xbe, 0xb1, 0x60, 0xf2, 0x3c,
  0x5f, 0x92, 0xdc, 0xbb, 0x75, 0x66, 0xaf, 0xbc, 0xc8, 0x66, 0x89, 0x3e,
  0xfc, 0xde, 0x32, 0x3d, 0xbc, 0x52, 0x95, 0xbe, 0x95, 0x9c, 0x50, 0xbd,
  0x5b, 0xcb, 0xcc, 0x3e, 0xdc, 0x14, 0x1c, 0xbe, 0x58, 0x03, 0x25, 0x3b,
  0x56, 0x08, 0x17, 0xbe, 0x31, 0x79, 0x09, 0xbd, 0x81, 0x6e, 0xfc, 0xbd,
  0x74, 0x9a, 0x16, 0x3e, 0x5c, 0x5b, 0x07, 0x3e, 0x1d, 0x7e, 0xc2, 0xbd,
  0x83, 0x15, 0x1b, 0x3d, 0xa6, 0x53, 0xa9, 0xbd, 0x81, 0x61, 0x6b, 0xbd,
  0x90, 0x83, 0xfb, 0x3d, 0xb9, 0x95, 0xf6, 0xbd, 0x1c, 0x5c, 0x7e, 0xbe,
  0x8f, 0x2d, 0x46, 0xbe, 0x70, 0x35, 0x02, 0x3e, 0xe7, 0x63, 0x89, 0xbd,
  0x67, 0xe0, 0x12, 0x3e, 0xc2, 0x72, 0x43, 0xbe, 0x5a, 0xcd, 0x76, 0xbe,
  0x91, 0x28, 0x1f, 0x3e, 0x24, 0x2b, 0x98, 0x3c, 0xa5, 0x7c, 0x00, 0xbc,
  0x1b, 0xef, 0x65, 0xbd, 0xa2, 0x5a, 0xd8, 0x3c, 0xcd, 0xb8, 0xff, 0xbb,
  0x51, 0xa1, 0x03, 0xbe, 0x42, 0xea, 0x4e, 0xbe, 0xa1, 0xd5, 0xc9, 0x3d,
  0x37, 0x20, 0x56, 0xbc, 0x64, 0x49, 0x4d, 0xbe, 0x41, 0xf0, 0xe8, 0x3c,
  0x58, 0xf5, 0xf6, 0x3d, 0x50, 0x3c, 0x19, 0x3e, 0xe2, 0x6f, 0x7d, 0x3c,
  0xbe, 0x23, 0x37, 0x3e, 0x97, 0x52, 0x0d, 0xbe, 0xba, 0x68, 0x76, 0x3d,
  0xee, 0xb1, 0x0e, 0xbc, 0x05, 0xef, 0x1d, 0x3d, 0xce, 0x95, 0xb3, 0xbc,
  0xb2, 0x0d, 0x1e, 0xbd, 0xe1, 0xaa, 0x02, 0x3d, 0xcd, 0xa0, 0xf4, 0x3d,
  0x16, 0x50, 0xc5, 0x3d, 0xce, 0x73, 0x05, 0xbe, 0x44, 0x05, 0xd2, 0x3d,
  0x8a, 0x9f, 0x16, 0xbe, 0x8e, 0x4d, 0xee, 0xbd, 0xcb, 0x5f, 0x36, 0xba,
  0x9e, 0xd7, 0xce, 0xbd, 0x55, 0x92, 0x17, 0xbb, 0x36, 0x5c, 0xa4, 0xbd,
  0x29, 0xef, 0x81, 0xbe, 0xbb, 0x18, 0xec, 0xbd, 0x92, 0x9c, 0x3d, 0xbd,
  0xd3, 0x48, 0x43, 0xbd, 0x85, 0x91, 0xd3, 0x3d, 0x84, 0xa2, 0x59, 0xbd,
  0x42, 0xee, 0xc2, 0xbd, 0x41, 0x96, 0xde, 0xbc, 0x3b, 0x11, 0x1e, 0x3e,
  0x92, 0xe9, 0x4e, 0xbc, 0xf8, 0xbf, 0x2a, 0xbe, 0x1b, 0xff, 0x9c, 0xbc,
  0xae, 0xd3, 0x47, 0xbd, 0x7e, 0x05, 0x3b, 0xbe, 0x52, 0xc4, 0xb2, 0xbb,
  0xee, 0xb2, 0xcf, 0x38, 0x3c, 0xca, 0xec, 0x3d, 0x08, 0x73, 0xa6, 0xbc,
  0x8d, 0x52, 0x14, 0xbd, 0xc8, 0x40, 0x5f, 0xbd, 0xd3, 0x0f, 0x74, 0xbc,
  0xe4, 0x65, 0xf0, 0xbd, 0x3c, 0xf0, 0x4a, 0xbe, 0xf4, 0x4f, 0x5a, 0xbd,
  0x2d, 0xbe, 0x80, 0x3e, 0x55, 0x23, 0x7e, 0x3b, 0x52, 0x72, 0x2b, 0xbb,
  0xc3, 0xec, 0xe7, 0x3d, 0x9b, 0xfc, 0x17, 0x3d, 0x13, 0x95, 0x87, 0x3e,
  0x4c, 0x9c, 0xa8, 0xbd, 0x18, 0x93, 0x19, 0x3d, 0xe9, 0x87, 0xc5, 0xbc,
  0xf4, 0xb0, 0xff, 0x3b, 0x40, 0x0e, 0x20, 0x3e, 0x8c, 0x1a, 0xae, 0x3d,
  0xd2, 0xb4, 0xdc, 0xbd, 0x6c, 0x20, 0x3e, 0xbe, 0x79, 0x6c, 0x8c, 0x3c,
  0x29, 0x6a, 0x9a, 0xbd, 0x93, 0xa5, 0xca, 0xbd, 0x3a, 0xc4, 0xdd, 0xbc,
  0x2f, 0x5c, 0x78, 0xbd, 0xa0, 0x98, 0xfd, 0x3b, 0x11, 0xd7, 0x39, 0xbe,
  0x0f, 0x1e, 0xa9, 0x3c, 0xf2, 0xa6, 0x86, 0xbc, 0xc5, 0x36, 0xdb, 0x3d,
  0xb5, 0x52, 0xe5, 0x3d, 0x61, 0xc0, 0xa8, 0x3d, 0x00, 0x12, 0x1d, 0xbb,
  0xfe, 0x0d, 0x3d, 0xbd, 0x0b, 0xe9, 0xab, 0x3c, 0xd4, 0x7e, 0x3e, 0xbe,
  0x58, 0x6b, 0x73, 0x3d, 0x16, 0xa1, 0xcd, 0xbb, 0xb6, 0x31, 0xdd, 0x3d,
  0x41, 0x68, 0xb4, 0x3b, 0xe8, 0xaf, 0x0d, 0xbc, 0xfe, 0xe8, 0x8e, 0xbe,
  0xdb, 0xba, 0x7f, 0xbd, 0x25, 0xbe, 0xee, 0x3e, 0x4e, 0x67, 0xbe, 0xbe,
  0x3b, 0xf5, 0x63, 0x3e, 0xe0, 0x51, 0x45, 0x3e, 0x2e, 0xc0, 0x43, 0xbe,
  0xf8, 0x27, 0x6f, 0xbe, 0xd6, 0x44, 0x2a, 0x3e, 0x8b, 0x21, 0xd9, 0xbd,
  0x5d, 0x4f, 0x21, 0x3e, 0x72, 0x2b, 0x09, 0x3d, 0x4c, 0x7b, 0x62, 0xbe,
  0xae, 0xd9, 0xc1, 0xbd, 0x2a, 0x20, 0x44, 0xbc, 0x09, 0x61, 0xb4, 0x3d,
  0x44, 0x66, 0x9e, 0x3c, 0x77, 0x7e, 0xed, 0xbd, 0x84, 0x8d, 0x14, 0xbd,
  0x39, 0x4d, 0xe7, 0x3c, 0x64, 0x65, 0xa2, 0x3d, 0xe2, 0xb3, 0x3d, 0x3e,
  0x0e, 0x50, 0xf3, 0x3c, 0xd0, 0xe3, 0xee, 0xbd, 0x81, 0x85, 0x23, 0x3e,
  0x6c, 0xc2, 0x9c, 0xbe, 0x2f, 0x7a, 0xca, 0xbd, 0x36, 0xd4, 0x02, 0xbe,
  0x13, 0x2e, 0x06, 0xbd, 0xfb, 0x9d, 0x76, 0xbe, 0x4d, 0xa4, 0x03, 0xbf,
  0xd9, 0xad, 0xc0, 0x3e, 0xce, 0x06, 0x25, 0xbd, 0x28, 0xd9, 0x85, 0x3c,
  0x76, 0x2e, 0xaf, 0x3d, 0x53, 0xd0, 0x32, 0x3c, 0xf0, 0x08, 0x3d, 0x3e,
  0x21, 0x72, 0xd5, 0x3d, 0x09, 0x31, 0x23, 0xbc, 0x20, 0x8a, 0x1e, 0xbe,
  0xdf, 0x80, 0xb2, 0xbc, 0xb0, 0x8d, 0x2b, 0xbe, 0xf7, 0x70, 0xbf, 0x3b,
  0x82, 0x5e, 0x80, 0xbd, 0x96, 0xf7, 0xcc, 0xbd, 0xce, 0x1e, 0x54, 0xbd,
  0xf6, 0x10, 0xa1, 0xbc, 0x38, 0xae, 0x0e, 0x3e, 0x63, 0xd5, 0x94, 0xbd,
  0x36, 0x91, 0x16, 0xbe, 0xaf, 0x39, 0x0b, 0x3e, 0xfd, 0x71, 0x64, 0xbd,
  0x5a, 0x7d, 0xef, 0x3d, 0x87, 0x35, 0xa5, 0xbd, 0xe9, 0x72, 0x23, 0xbe,
  0x7a, 0x9f, 0x4c, 0x3c, 0xf0, 0x88, 0xd6, 0xbd, 0x3d, 0x87, 0xba, 0x3d,
  0xad, 0xc7, 0x44, 0xbd, 0x86, 0x7c, 0xfa, 0x3d, 0x11, 0xa1, 0x5d, 0xbe,
  0x37, 0xc0, 0x0c, 0xbe, 0x68, 0x3b, 0x9e, 0xbd, 0x49, 0xf3, 0x09, 0xbc,
  0x0c, 0x88, 0x1f, 0xbd, 0x60, 0x3f, 0x11, 0xbe, 0xc2, 0x10, 0xe9, 0xbd,
  0xe0, 0x29, 0x07, 0x3d, 0x2a, 0x00, 0xe9, 0x3c, 0x49, 0xfb, 0xde, 0x3d,
  0x99, 0x55, 0xed, 0x3b, 0xdf, 0x77, 0x08, 0x3e, 0xa5, 0x99, 0x21, 0xbe,
  0xc8, 0xab, 0x0e, 0xbd, 0xdd, 0x85, 0x2c, 0xbc, 0x03, 0x80, 0xce, 0xbc,
  0x76, 0xbc, 0x02, 0x3e, 0x6d, 0x4c, 0xa3, 0x3d, 0xa1, 0xa0, 0x08, 0xbc,
  0x5d, 0x7b, 0x90, 0x3e, 0xbf, 0xa5, 0x17, 0xbe, 0xb2, 0xae, 0x81, 0x3d,
  0xab, 0x68, 0x69, 0x3c, 0xd4, 0x27, 0x6d, 0xbc, 0x3c, 0x8c, 0xb6, 0x3c,
  0xda, 0x0c, 0xcf, 0xbd, 0x32, 0x2c, 0x04, 0xbc, 0x62, 0x39, 0x2c, 0xbd,
  0x43, 0x4a, 0x3d, 0x3e, 0x44, 0x2f, 0xdc, 0xbd, 0x92, 0x3d, 0x7e, 0x3c,
  0xf4, 0x82, 0xf1, 0x3c, 0xf3, 0x81, 0x57, 0x3c, 0x3d, 0x33, 0x12, 0x3e,
  0x0b, 0xf8, 0x9f, 0x3e, 0x78, 0x05, 0xc3, 0xbc, 0xe7, 0x64, 0x14, 0x3d,
  0x23, 0x6c, 0xfe, 0xbd, 0x47, 0xa1, 0x84, 0x3d, 0x11, 0x56, 0x5d, 0xbd,
  0xd9, 0x40, 0x2a, 0x3c, 0xfe, 0xe5, 0x23, 0x3e, 0xc6, 0xc8, 0xcd, 0xbd,
  0x26, 0x28, 0x73, 0xbe, 0x0b, 0x27, 0x2a, 0xbe, 0xb5, 0x1a, 0xb2, 0xbc,
  0xd8, 0xff, 0x01, 0xbe, 0x8f, 0xae, 0x8d, 0xbd, 0x61, 0x8d, 0x6f, 0xbc,
  0xd4, 0xf0, 0xb8, 0xbd, 0x78, 0x80, 0xf9, 0xba, 0xc3, 0xba, 0x14, 0x3e,
  0x16, 0x7d, 0x38, 0x3e, 0xe7, 0x72, 0x81, 0x3d, 0x4e, 0x35, 0xb4, 0xbd,
  0xe7, 0x56, 0xc6, 0x3d, 0xc0, 0xe0, 0xd7, 0x3d, 0xe5, 0x43, 0x68, 0x3d,
  0xcf, 0x92, 0x1b, 0x3d, 0xce, 0xb2, 0xe6, 0x39, 0x93, 0xb7, 0xa8, 0xbc,
  0xf1, 0xb0, 0x03, 0x3d, 0x3b, 0xe1, 0xc8, 0x3c, 0x67, 0x85, 0xda, 0x3b,
  0xd3, 0x5b, 0xab, 0xbd, 0x7e, 0x4f, 0x6e, 0xbe, 0x8d, 0x44, 0xb4, 0xbd,
  0x82, 0xa8, 0xed, 0xbd, 0x11, 0xc4, 0xf8, 0x3d, 0xed, 0x9b, 0xc7, 0xbc,
  0x67, 0x9d, 0xc5, 0x3d, 0x1c, 0x4a, 0x10, 0x3d, 0x91, 0x82, 0xaf, 0x3d,
  0x92, 0x39, 0x08, 0xbd, 0x93, 0xd1, 0x05, 0xbe, 0x85, 0xf6, 0xc0, 0x3d,
  0x94, 0x33, 0x65, 0xbe, 0x32, 0x3c, 0xee, 0xbb, 0xb0, 0x5c, 0xdc, 0xbd,
  0xeb, 0x48, 0xbd, 0xbc, 0x03, 0xda, 0x0d, 0x3d, 0xc7, 0xc0, 0x17, 0x3e,
  0xf7, 0x3f, 0xfb, 0xbd, 0xc4, 0x51, 0x2e, 0x3d, 0xe7, 0xfb, 0xfb, 0xb9,
  0x44, 0xec, 0x2b, 0x3d, 0x22, 0xc8, 0x1a, 0xbe, 0x92, 0x7e, 0x2d, 0xbd,
  0xf8, 0xc0, 0x87, 0x3e, 0x5a, 0x32, 0x7e, 0xbe, 0x6c, 0x8d, 0x31, 0xbe,
  0x12, 0x08, 0xf1, 0x3c, 0xe2, 0x6b, 0x3d, 0xbd, 0x84, 0xf2, 0x44, 0xbd,
  0xa0, 0xf1, 0x84, 0xbd, 0x76, 0x2d, 0x9b, 0xbb, 0xee, 0x21, 0x77, 0x3d,
  0x71, 0xe2, 0x9e, 0x3d, 0xb2, 0x6e, 0xae, 0x3d, 0x92, 0xbc, 0x84, 0x3d,
  0x8b, 0xea, 0x3a, 0x3d, 0x33, 0x17, 0xba, 0xbd, 0x28, 0x1d, 0xd2, 0xbc,
  0x5e, 0x83, 0xce, 0xbd, 0xca, 0xec, 0x8d, 0x3d, 0xa1, 0x98, 0x06, 0xbe,
  0x1b, 0xa5, 0x4b, 0x3e, 0xa4, 0x54, 0x31, 0x3d, 0x42, 0xbf, 0x53, 0x3d,
  0x1f, 0xbf, 0x14, 0xbd, 0x97, 0x5f, 0x56, 0xbd, 0x5e, 0xb4, 0x67, 0xbd,
  0x9b, 0x9c, 0x0a, 0xbe, 0xad, 0x91, 0x83, 0x3e, 0x4c, 0x4b, 0x09, 0x3c,
  0x3b, 0xc6, 0xb1, 0x3b, 0x8a, 0xa2, 0x9e, 0x3c, 0x73, 0xb4, 0x3e, 0xbe,
  0x4b, 0xb2, 0xf6, 0xbd, 0xec, 0x6a, 0xe3, 0x3d, 0x30, 0x53, 0x57, 0x3d,
  0xb8, 0xa8, 0x50, 0x3e, 0xe5, 0xab, 0x65, 0x3d, 0x1e, 0xc9, 0x78, 0xbd,
  0x29, 0xc7, 0xfa, 0xbd, 0xe2, 0x8e, 0x6a, 0x3c, 0x60, 0xe5, 0xb2, 0xbc,
  0x61, 0xbd, 0xd0, 0x3d, 0x10, 0xa5, 0x33, 0x3c, 0x5c, 0xca, 0xbf, 0x3d,
  0xa1, 0xe6, 0x82, 0x3d, 0xa6, 0x2d, 0xb6, 0xbc, 0x32, 0xd0, 0x1e, 0x3d,
  0x45, 0x32, 0xc8, 0x3c, 0x07, 0xe1, 0x5f, 0x3d, 0x13, 0x8d, 0x84, 0x3d,
  0x8b, 0xf7, 0x1f, 0xbc, 0x57, 0xfa, 0xe3, 0xbd, 0x02, 0x74, 0xee, 0xbb,
  0xaa, 0xdb, 0x13, 0x3d, 0x8e, 0x4d, 0xd4, 0xb9, 0x17, 0x54, 0xed, 0xbc,
  0xd2, 0x03, 0x51, 0x3e, 0x00, 0xd8, 0xfb, 0x3c, 0x30, 0xc5, 0xc9, 0xbd,
  0xec, 0x07, 0x22, 0x3e, 0xa8, 0x99, 0xa1, 0x3e, 0x68, 0x29, 0x09, 0xbe,
  0x2b, 0x27, 0x42, 0xbe, 0x78, 0xb7, 0x42, 0x3e, 0x2d, 0xb8, 0x15, 0x3a,
  0xb0, 0xcf, 0x52, 0xbe, 0x38, 0x17, 0x50, 0x3e, 0x12, 0x70, 0xdd, 0xbd,
  0x25, 0x3f, 0x6a, 0xbe, 0xa8, 0xd5, 0x91, 0x3d, 0xa4, 0x9b, 0x00, 0xbe,
  0x79, 0xbf, 0x4d, 0xbd, 0x98, 0x18, 0xe3, 0xbd, 0x26, 0xa1, 0x30, 0x3d,
  0xa6, 0xd6, 0x7b, 0xbb, 0x1a, 0x80, 0x34, 0x3d, 0x05, 0x6b, 0x46, 0x3d,
  0xf6, 0x61, 0xda, 0x3d, 0x31, 0xb6, 0x50, 0x3d, 0xf5, 0x04, 0xa9, 0x3d,
  0x21, 0x09, 0x89, 0x3e, 0x2b, 0xbb, 0xf5, 0x3d, 0xbd, 0x76, 0xe5, 0xbb,
  0xb3, 0x84, 0x40, 0x3e, 0x34, 0x4b, 0x9d, 0xbe, 0x19, 0x55, 0x21, 0xbe,
  0xb8, 0x17, 0x21, 0x3c, 0x13, 0xd3, 0x5f, 0xbd, 0x05, 0xac, 0x91, 0xbd,
  0xc8, 0x64, 0x22, 0xbe, 0x38, 0x2c, 0x2a, 0xbe, 0x0e, 0xbf, 0x09, 0xbe,
  0x58, 0xc1, 0x4a, 0xbd, 0xdb, 0x04, 0x5c, 0x3e, 0x83, 0x4d, 0x86, 0xbe,
  0x35, 0xc1, 0x3c, 0xbd, 0x65, 0x4c, 0x5b, 0x3e, 0xe6, 0x4a, 0xda, 0x3c,
  0x78, 0xd5, 0x59, 0xbd, 0xe2, 0x9b, 0x9f, 0xbd, 0x84, 0x32, 0x1a, 0x3d,
  0xbc, 0xca, 0x1a, 0xbe, 0xe6, 0xe1, 0xdf, 0xbd, 0x2b, 0x59, 0xeb, 0xbd,
  0x46, 0x9c, 0x6a, 0x3d, 0xd7, 0xd8, 0x1c, 0x3d, 0x2c, 0x2b, 0x35, 0x3d,
  0x58, 0xc7, 0x0b, 0xbe, 0x7d, 0xcc, 0x83, 0x3c, 0x5c, 0xef, 0xbb, 0x3d,
  0x21, 0xc4, 0x8b, 0x3d, 0x37, 0xfb, 0xca, 0x3c, 0x35, 0xc0, 0x6f, 0x3e,
  0x7f, 0xaa, 0x09, 0xbd, 0xd2, 0xa0, 0x3d, 0x3d, 0x21, 0x5f, 0x7e, 0x3b,
  0x37, 0x48, 0x89, 0xbe, 0x81, 0x99, 0xb9, 0xbe, 0xf3, 0x3a, 0x29, 0x3e,
  0xec, 0xb9, 0x6a, 0xbe, 0x8b, 0xe4, 0x00, 0x3e, 0xc4, 0x42, 0xcd, 0x3d,
  0x25, 0xc7, 0xa0, 0xbc, 0xd3, 0xf5, 0x18, 0xbe, 0x1c, 0xb0, 0x8f, 0x3c,
  0xfb, 0xe5, 0x92, 0x3e, 0x7b, 0xd5, 0x1d, 0x3d, 0xbd, 0xcf, 0x3c, 0xbe,
  0xbf, 0xff, 0x4c, 0x3e, 0x1f, 0xe8, 0x9d, 0xbd, 0x91, 0xc2, 0x16, 0x3e,
  0x37, 0xb6, 0xfe, 0xbd, 0x7b, 0xe2, 0xb2, 0x3c, 0xe2, 0x8f, 0x16, 0xbe,
  0x56, 0x29, 0x7f, 0xbc, 0x88, 0xee, 0x85, 0xbe, 0x09, 0x68, 0xfd, 0x3d,
  0x20, 0x2d, 0x96, 0x3e, 0x26, 0xd7, 0xab, 0xbd, 0xbf, 0xfe, 0x0e, 0xbe,
  0x66, 0x00, 0xec, 0xbe, 0x92, 0x0c, 0x80, 0x3e, 0x61, 0xdd, 0xc5, 0x3d,
  0x29, 0x28, 0x5d, 0x3d, 0xcf, 0x54, 0xe4, 0x3e, 0x4a, 0x1f, 0x13, 0x3d,
  0xe8, 0x17, 0xe7, 0xbb, 0x8c, 0x19, 0x90, 0x3a, 0xf7, 0x8f, 0x9a, 0xbe,
  0x09, 0xb0, 0xba, 0xbe, 0x01, 0x67, 0x38, 0x3e, 0xb7, 0xf0, 0x1e, 0xbe,
  0xde, 0x2e, 0x2d, 0x3e, 0x41, 0x17, 0xb7, 0xbc, 0x3a, 0x64, 0x1e, 0xbe,
  0xec, 0x34, 0x1e, 0xbe, 0xa9, 0xe2, 0x86, 0xbd, 0xc5, 0x3c, 0x97, 0x3e,
  0x91, 0x6f, 0xbc, 0xbd, 0x8f, 0x4a, 0x1d, 0xbe, 0x9b, 0x91, 0x1e, 0x3e,
  0xb9, 0x57, 0xc5, 0x3c, 0xc4, 0x67, 0xc9, 0x3e, 0x70, 0xf7, 0x0f, 0xbc,
  0x1e, 0x04, 0x3d, 0x3e, 0xbe, 0xbc, 0xff, 0x3d, 0x23, 0xe6, 0x8e, 0x3e,
  0x52, 0x57, 0x8e, 0xbe, 0x60, 0x71, 0xbf, 0x3d, 0x18, 0x8e, 0x12, 0xbe,
  0xe8, 0xb9, 0xb8, 0x3d, 0xdb, 0xb3, 0xcb, 0xbe, 0x9c, 0x89, 0xb7, 0xbe,
  0x0a, 0x7c, 0xbf, 0x3e, 0xc2, 0xcc, 0x94, 0xba, 0x0b, 0x75, 0x03, 0xbe,
  0x20, 0x95, 0x92, 0x3e, 0x94, 0x0a, 0x9f, 0x3d, 0xbe, 0x6d, 0x68, 0xbd,
  0x4d, 0x41, 0x75, 0x3d, 0xe5, 0x07, 0xd7, 0xbd, 0xda, 0x16, 0x1d, 0xbd,
  0x9d, 0x81, 0xc8, 0xbd, 0x0c, 0xfb, 0x8d, 0xbd, 0x56, 0x22, 0x7e, 0x3d,
  0xd6, 0xb9, 0x04, 0x3e, 0x93, 0xc8, 0x09, 0xbe, 0xb2, 0x20, 0x3d, 0xbd,
  0x3d, 0xc2, 0x47, 0x3e, 0xf1, 0x07, 0x33, 0x3d, 0x41, 0xde, 0x2c, 0x3d,
  0x6d, 0xa0, 0x8b, 0xbe, 0x0d, 0x47, 0x85, 0x3d, 0xbd, 0x17, 0xa5, 0xbc,
  0x8c, 0xc8, 0x88, 0x3e, 0x73, 0x16, 0xf3, 0xbd, 0xcb, 0x80, 0xab, 0x3d,
  0xe3, 0xd4, 0x0b, 0xbe, 0xac, 0x97, 0x90, 0xbe, 0xd3, 0xaf, 0x8d, 0x3e,
  0xdc, 0x3f, 0x05, 0x3e, 0x26, 0x10, 0x03, 0xbd, 0x2c, 0x51, 0x94, 0x3d,
  0x5a, 0x42, 0x4e, 0xbe, 0x8c, 0x44, 0xa6, 0xbe, 0x44, 0x09, 0x28, 0x3e,
  0x65, 0xf3, 0x65, 0xbe, 0x30, 0x5e, 0x04, 0xbb, 0x09, 0x25, 0x94, 0x3d,
  0xd8, 0x29, 0x77, 0xbc, 0x1d, 0xb1, 0xfe, 0xbd, 0x2e, 0x36, 0xa7, 0xbd,
  0xa3, 0x16, 0x34, 0x3b, 0xdc, 0xa0, 0x25, 0x3e, 0x14, 0xb4, 0x9a, 0xbd,
  0x74, 0x68, 0x6e, 0xbc, 0x1a, 0x0b, 0xb1, 0xbc, 0xa0, 0xd2, 0x3e, 0xbd,
  0x80, 0xc5, 0x6c, 0xbe, 0xba, 0x7b, 0xc6, 0xbc, 0x9f, 0xf1, 0x76, 0xbd,
  0xa7, 0xfd, 0x5a, 0x3c, 0x27, 0xbd, 0xaf, 0x3d, 0x66, 0xed, 0xdd, 0x3d,
  0xde, 0xfc, 0xea, 0x3d, 0x65, 0x46, 0xad, 0x3c, 0x69, 0xed, 0x18, 0xbe,
  0xb7, 0xa7, 0x4c, 0xbd, 0xd0, 0x1a, 0xee, 0x3d, 0x15, 0xb3, 0x9a, 0xbc,
  0xb6, 0x9a, 0x96, 0xbd, 0x1b, 0x93, 0x64, 0x3c, 0xca, 0x41, 0xec, 0x3d,
  0x74, 0x27, 0x32, 0xbe, 0xfd, 0xc4, 0x8b, 0x3d, 0x40, 0x11, 0x41, 0x3e,
  0xe7, 0xcf, 0x3c, 0x3e, 0x3e, 0x2e, 0x4b, 0x3c, 0x06, 0x28, 0x95, 0x3d,
  0xed, 0xf6, 0xe0, 0xbd, 0x07, 0x60, 0x12, 0x3e, 0x24, 0x4a, 0x25, 0xbe,
  0xcd, 0x27, 0x3e, 0xbc, 0xe7, 0xf8, 0x89, 0x3c, 0xb8, 0xb2, 0xc2, 0x3c,
  0xf1, 0x93, 0x79, 0x3d, 0x89, 0x0e, 0x0f, 0x3e, 0xc3, 0xc9, 0x4d, 0xbe,
  0xf4, 0xbf, 0x2f, 0x3e, 0x2f, 0xeb, 0xab, 0x3b, 0x22, 0x78, 0x1c, 0x3e,
  0x5b, 0x6d, 0x31, 0xbd, 0x3e, 0xfb, 0xed, 0x3d, 0xbc, 0x75, 0x66, 0x3d,
  0x82, 0xb0, 0xfa, 0xbb, 0xbc, 0x2e, 0xea, 0xbd, 0x91, 0x84, 0x3e, 0x3d,
  0xde, 0x80, 0x20, 0xbe, 0xcd, 0x85, 0x84, 0xbe, 0xbf, 0x90, 0xf4, 0xbd,
  0xd3, 0xa2, 0x47, 0x3e, 0x65, 0x84, 0x50, 0x3d, 0xd1, 0x61, 0xe4, 0x3c,
  0x84, 0x70, 0x74, 0xbe, 0x57, 0x77, 0x3f, 0x3e, 0xbe, 0x30, 0xd7, 0x3b,
  0xa1, 0x20, 0x1a, 0x3e, 0x0c, 0xe7, 0xd0, 0xbd, 0x97, 0xef, 0x35, 0xbe,
  0x6d, 0x67, 0x38, 0x3e, 0x21, 0x4b, 0xec, 0xbc, 0x42, 0x87, 0x1a, 0x3e,
  0x7c, 0xe4, 0xf7, 0x3a, 0x74, 0x16, 0xbc, 0xbd, 0xaa, 0xed, 0xae, 0xbc,
  0x3c, 0x58, 0xff, 0xbd, 0xee, 0xd9, 0x8f, 0xbd, 0x48, 0x82, 0xf8, 0x3d,
  0xd7, 0x86, 0xa2, 0xbd, 0xc5, 0x6e, 0xef, 0x3d, 0xaf, 0x92, 0xc4, 0x3c,
  0x83, 0x35, 0xb7, 0xbd, 0xca, 0x9d, 0xd4, 0x3d, 0x72, 0x5d, 0xcd, 0x3b,
  0xc1, 0x5e, 0xa0, 0x3d, 0xcd, 0xb1, 0x05, 0x3e, 0xb8, 0x31, 0xb2, 0x3c,
  0x0a, 0x83, 0x07, 0x3e, 0xfe, 0x1d, 0x6d, 0x3d, 0x95, 0x34, 0x81, 0x3e,
  0x09, 0x33, 0x99, 0x3d, 0x09, 0x7f, 0x3c, 0xbd, 0x34, 0xcc, 0x1f, 0xbe,
  0x05, 0xd9, 0x4d, 0x3e, 0x6e, 0x7d, 0x55, 0xbb, 0x22, 0xf8, 0x9d, 0xbb,
  0x41, 0xaf, 0xdf, 0x3d, 0xce, 0xa4, 0xc2, 0x3c, 0xf7, 0xaa, 0x9f, 0x3d,
  0x51, 0x04, 0xf6, 0x3d, 0x0c, 0x9a, 0x2c, 0xbe, 0x95, 0x81, 0x13, 0x3d,
  0xf0, 0x98, 0xb7, 0x3d, 0x68, 0x33, 0x02, 0xbd, 0xa7, 0x8f, 0x13, 0x3c,
  0x7e, 0x8d, 0xe1, 0xbd, 0xc1, 0x6d, 0xf4, 0xbd, 0xf6, 0x0c, 0x48, 0x3d,
  0x37, 0x33, 0x19, 0x3d, 0x37, 0xfd, 0x4f, 0xbd, 0x14, 0xef, 0x04, 0x3c,
  0x5d, 0x66, 0x9a, 0xbc, 0x5d, 0xb5, 0xc6, 0xbc, 0x16, 0x0f, 0x90, 0xbc,
  0xec, 0x8f, 0xa6, 0xbd, 0x38, 0x32, 0x54, 0x3d, 0x36, 0x06, 0xac, 0x3d,
  0x67, 0x43, 0x53, 0x3d, 0x8a, 0x1d, 0x35, 0xbd, 0x8b, 0x62, 0x1c, 0xbe,
  0xfa, 0xd2, 0x80, 0xbc, 0xa4, 0x83, 0x0b, 0x3e, 0x1e, 0xd9, 0x14, 0x3e,
  0xc5, 0x94, 0xa8, 0x3c, 0x48, 0x84, 0x51, 0x3d, 0x19, 0x9d, 0x94, 0xbe,
  0xa5, 0xbb, 0x21, 0x3e, 0x16, 0x26, 0x7a, 0xbd, 0xbf, 0x9c, 0x2d, 0x3d,
  0xff, 0xc2, 0x52, 0xbd, 0x02, 0x14, 0x86, 0xbd, 0x3e, 0x07, 0xa4, 0x3c,
  0x9f, 0x7a, 0xda, 0x3d, 0x51, 0x2f, 0x16, 0x3d, 0x85, 0xb4, 0xa6, 0xbd,
  0x96, 0x8d, 0xc9, 0x3d, 0x34, 0x40, 0x32, 0xbc, 0x10, 0x96, 0x32, 0x3e,
  0x43, 0x74, 0x9c, 0x3d, 0xc3, 0x6c, 0x29, 0x3e, 0x03, 0xb1, 0x9f, 0xbb,
  0x7a, 0xc6, 0xfd, 0xbd, 0x5e, 0xcb, 0xc9, 0x3b, 0xe2, 0x37, 0xdf, 0xbd,
  0x8a, 0x92, 0xab, 0xbb, 0x66, 0x5b, 0x9a, 0x3d, 0xad, 0x54, 0x83, 0xbd,
  0xab, 0xd3, 0x4f, 0x3b, 0x2c, 0xd1, 0x3f, 0x3e, 0xd6, 0x93, 0x1f, 0xbe,
  0x2b, 0xbd, 0x7b, 0xbd, 0x77, 0xda, 0xff, 0x3d, 0x7b, 0xb9, 0x0a, 0x3e,
  0xd5, 0x9f, 0xef, 0x3d, 0x48, 0x3c, 0x8d, 0xbd, 0xcc, 0xf2, 0x1e, 0x3d,
  0xf4, 0x2e, 0xd2, 0x3d, 0x11, 0x91, 0xa0, 0x3e, 0xc0, 0xa4, 0x11, 0x3d,
  0xd9, 0x04, 0x6f, 0xbd, 0xe7, 0x9b, 0x2c, 0xbc, 0xa0, 0x76, 0xbf, 0xbc,
  0xcb, 0x9c, 0x2a, 0xbc, 0x55, 0x41, 0xc6, 0x3d, 0x7e, 0xbf, 0xd1, 0x3d,
  0x10, 0xc1, 0x95, 0xbe, 0x17, 0xa5, 0x0d, 0xbd, 0x30, 0x9a, 0xa9, 0xbc,
  0x3c, 0x79, 0xd3, 0xbd, 0x2c, 0x5f, 0x34, 0x39, 0x56, 0xcc, 0x16, 0xbd,
  0x87, 0xca, 0xbc, 0xbd, 0xae, 0xfc, 0xb3, 0x3d, 0x21, 0x52, 0x03, 0x3e,
  0xd8, 0xc7, 0x3f, 0x3c, 0x00, 0x7a, 0x48, 0xbd, 0x81, 0x66, 0x46, 0x3d,
  0x64, 0xf2, 0x1e, 0xbd, 0x04, 0xdf, 0x14, 0x3b, 0x98, 0xe6, 0xf0, 0xbd,
  0xef, 0x41, 0x15, 0xbe, 0xeb, 0x9d, 0x27, 0xbe, 0x5a, 0xd1, 0xf1, 0x3d,
  0xc1, 0xce, 0x8d, 0x3d, 0x68, 0x1b, 0x93, 0xba, 0x60, 0xe1, 0x19, 0x3d,
  0x07, 0xf7, 0xc7, 0x3d, 0xb3, 0x69, 0x06, 0x3e, 0xe3, 0x8b, 0x0f, 0xbd,
  0x8d, 0xe4, 0xe2, 0xbc, 0xae, 0x73, 0xfb, 0xbd, 0x37, 0x75, 0x43, 0x3d,
  0xed, 0x9b, 0x13, 0xbe, 0x44, 0xf7, 0x8d, 0xbd, 0x20, 0x8f, 0x09, 0xbe,
  0xb5, 0x94, 0x20, 0x3d, 0x32, 0x72, 0x22, 0x3e, 0x48, 0xe5, 0x78, 0xbc,
  0xc0, 0x1e, 0x38, 0xbd, 0x43, 0xc3, 0xfa, 0xbc, 0x63, 0x6f, 0x5d, 0xbe,
  0x3b, 0x85, 0xa4, 0x3d, 0xf0, 0xdc, 0x15, 0xbe, 0xd8, 0x54, 0x25, 0xbd,
  0x97, 0x03, 0xfa, 0xbc, 0x08, 0xca, 0xdf, 0x3d, 0x24, 0xcb, 0x70, 0xbd,
  0xf6, 0xd2, 0x56, 0x3e, 0xa6, 0x6c, 0x8c, 0x3d, 0xf6, 0xf6, 0xeb, 0xbd,
  0x56, 0x93, 0x0a, 0xbd, 0x44, 0x8b, 0xfc, 0x3d, 0x76, 0xaa, 0xb0, 0xbc,
  0xcb, 0x5b, 0xf8, 0x3d, 0xc7, 0x46, 0x66, 0x3c, 0xea, 0xb5, 0x03, 0x3d,
  0xca, 0x80, 0xa5, 0xbd, 0x38, 0x7b, 0xa1, 0xbd, 0xba, 0xcd, 0xbb, 0xbd,
  0xf8, 0xba, 0x7e, 0xbd, 0x62, 0x06, 0x8e, 0x3d, 0xa8, 0x3e, 0x59, 0x3d,
  0x8d, 0x07, 0x39, 0xbe, 0xe0, 0x8d, 0x4d, 0xbd, 0x42, 0xa2, 0x94, 0xbe,
  0x12, 0x2e, 0x36, 0xbd, 0x84, 0xf3, 0x22, 0xbe, 0x41, 0x03, 0x19, 0x3e,
  0x10, 0x6b, 0x8b, 0xbd, 0x50, 0x61, 0xff, 0xbd, 0xac, 0x1f, 0x14, 0xbd,
  0xb9, 0xe5, 0xfa, 0xbd, 0xa7, 0x85, 0x48, 0x3e, 0x2d, 0xf4, 0x2f, 0x3d,
  0x43, 0x2c, 0xa7, 0x3c, 0x92, 0xab, 0x13, 0xbd, 0x2f, 0x82, 0x07, 0xbd,
  0x18, 0xfd, 0x70, 0xbe, 0xee, 0xcb, 0x4c, 0x3e, 0x64, 0x79, 0x95, 0xbd,
  0x0a, 0xcb, 0x17, 0x3d, 0xbf, 0xa1, 0x89, 0xbd, 0xcd, 0x34, 0x48, 0xbe,
  0x14, 0x9a, 0x23, 0x3d, 0x56, 0xd3, 0x80, 0xbd, 0x26, 0x53, 0xdb, 0x3d,
  0xc5, 0xac, 0x25, 0x3e, 0x48, 0x13, 0x84, 0xbd, 0x10, 0x56, 0x83, 0x3d,
  0x71, 0x43, 0x03, 0xbe, 0xe4, 0x57, 0xf5, 0x3d, 0x6a, 0x34, 0x20, 0xbc,
  0xfd, 0x6a, 0x51, 0x3d, 0xbb, 0x7c, 0x42, 0xbd, 0xf0, 0x49, 0x22, 0xbd,
  0x68, 0x81, 0x7c, 0xbe, 0x7c, 0xfc, 0x86, 0xbd, 0x0a, 0x5e, 0x02, 0xbe,
  0xe2, 0x6c, 0xde, 0x3d, 0x34, 0x83, 0x42, 0xbe, 0x9b, 0x41, 0x99, 0xbd,
  0x19, 0x30, 0x81, 0xbd, 0x5c, 0x81, 0xc8, 0x3c, 0x32, 0xec, 0x75, 0x3b,
  0x7d, 0xf7, 0x38, 0xbe, 0x4a, 0x9e, 0x71, 0xbb, 0x85, 0xd4, 0x05, 0xbe,
  0x2c, 0x8d, 0x49, 0x3c, 0xab, 0x36, 0x26, 0x3e, 0xe4, 0x6b, 0x53, 0x3e,
  0xc6, 0xf0, 0xb5, 0xbd, 0xe8, 0x66, 0x8f, 0xbc, 0x85, 0x19, 0x8e, 0x3d,
  0xb9, 0x6c, 0xa4, 0xbc, 0xd6, 0xfb, 0xdb, 0x3b, 0xc8, 0x20, 0xde, 0x3d,
  0x94, 0x9b, 0x41, 0x3e, 0x14, 0x74, 0x0e, 0x3c, 0x26, 0x81, 0x75, 0x3d,
  0xee, 0xe0, 0x76, 0x3e, 0xab, 0xf7, 0xa5, 0xbd, 0x9d, 0x10, 0xbb, 0x3d,
  0xa1, 0x3f, 0x52, 0x3d, 0x6f, 0x4f, 0xec, 0x3d, 0x27, 0x3f, 0x5b, 0x3d,
  0x7c, 0xf4, 0xb9, 0xbd, 0x95, 0x7c, 0x52, 0x3e, 0x9a, 0xa0, 0x8e, 0x3c,
  0x8a, 0x36, 0x51, 0xbd, 0x79, 0xc6, 0x34, 0x3e, 0xd2, 0x31, 0x84, 0xbd,
  0x55, 0xd2, 0xc6, 0xbc, 0x8e, 0x2d, 0x43, 0x3e, 0x7e, 0x76, 0xa6, 0xbe,
  0xec, 0x0c, 0xac, 0xbd, 0x68, 0x37, 0xe3, 0xbc, 0x9f, 0xaf, 0x14, 0xbd,
  0x28, 0x3d, 0xf9, 0xbd, 0xfd, 0xc3, 0xb5, 0xbc, 0xdd, 0x17, 0xd1, 0x3d,
  0x26, 0x89, 0x40, 0xbd, 0xb5, 0x1d, 0xd0, 0xbd, 0x8a, 0x92, 0x83, 0xbc,
  0xdc, 0xa6, 0x1e, 0x3e, 0x99, 0xb0, 0xc5, 0x3d, 0x16, 0x62, 0x81, 0x3d,
  0xe8, 0x27, 0xef, 0xbc, 0xc7, 0xdf, 0x71, 0x3d, 0x44, 0x61, 0x77, 0x3c,
  0x64, 0x41, 0x58, 0x3c, 0x94, 0x46, 0x14, 0xbd, 0x16, 0x5f, 0x9d, 0x3c,
  0x46, 0x9e, 0x06, 0x3d, 0xb8, 0x44, 0x1c, 0x3e, 0x83, 0xe3, 0x24, 0xbe,
  0x4a, 0xe7, 0x33, 0x3e, 0x36, 0x67, 0x0d, 0xbe, 0x7d, 0x43, 0x7c, 0x3d,
  0x36, 0x94, 0x42, 0x3d, 0x8d, 0x3d, 0xba, 0xbd, 0x96, 0x12, 0xfc, 0x3c,
  0x3f, 0x97, 0x0d, 0x3d, 0xba, 0xde, 0xed, 0x3d, 0x12, 0x1d, 0x88, 0xbd,
  0x63, 0x9b, 0x39, 0x3d, 0x0b, 0xa7, 0x40, 0xbd, 0x6a, 0x45, 0x11, 0x3d,
  0x44, 0x83, 0xa6, 0x3d, 0x73, 0x38, 0xc2, 0x3d, 0x1e, 0xeb, 0x22, 0x3e,
  0xcb, 0xe9, 0xe5, 0xbb, 0xcc, 0x85, 0xfc, 0x3d, 0xe2, 0x77, 0xa5, 0x3d,
  0xb0, 0xc9, 0x32, 0xbd, 0x5b, 0x72, 0xf2, 0xbc, 0x32, 0x44, 0x55, 0x3e,
  0xbc, 0xfc, 0x6c, 0x3c, 0xa0, 0x6b, 0x0b, 0x3e, 0x0b, 0xaf, 0x2e, 0x3e,
  0x1d, 0x3f, 0x51, 0x3e, 0x0d, 0x64, 0xe0, 0x3d, 0xa3, 0xb2, 0x02, 0xbc,
  0xe0, 0x25, 0x6f, 0xbd, 0x43, 0x4c, 0x08, 0x3e, 0xb2, 0x0b, 0xd2, 0x3c,
  0x7d, 0x23, 0x3a, 0x3e, 0xb3, 0x6f, 0x7f, 0xbd, 0x47, 0xf6, 0x15, 0xbe,
  0x35, 0xa1, 0x84, 0xbe, 0xa8, 0x7f, 0x6c, 0x3d, 0x21, 0xfd, 0x6a, 0xbd,
  0x9d, 0xe3, 0x40, 0xbe, 0xd4, 0xb2, 0xac, 0x3d, 0x46, 0x55, 0x62, 0xbb,
  0x4d, 0x1d, 0x9d, 0xbd, 0x29, 0x3d, 0xfa, 0x3d, 0x8e, 0x3b, 0x35, 0xbc,
  0xf7, 0xd3, 0x42, 0x3d, 0x53, 0xcf, 0x29, 0x3e, 0x7e, 0xfa, 0xfc, 0xbd,
  0x1f, 0x9c, 0xc1, 0xbd, 0x02, 0xed, 0x85, 0xbe, 0xb9, 0xf2, 0xed, 0xbd,
  0x7a, 0x9b, 0x10, 0x3d, 0xbb, 0x5c, 0x84, 0xbd, 0xa0, 0xc3, 0x8a, 0x3d,
  0x98, 0x7d, 0x86, 0xba, 0x3c, 0x6f, 0xe2, 0xbd, 0x62, 0x23, 0x2c, 0xbe,
  0x0e, 0x6b, 0x9b, 0xbd, 0xb1, 0xf6, 0x44, 0xbd, 0x44, 0xc9, 0x21, 0xbe,
  0xd1, 0x59, 0x2c, 0x3d, 0x2d, 0x0c, 0x1a, 0x3e, 0x12, 0xf5, 0x81, 0xbc,
  0x9a, 0x18, 0x5c, 0x3d, 0x42, 0x32, 0xae, 0x3d, 0xbf, 0xd1, 0xdb, 0xbd,
  0x40, 0xc4, 0x53, 0xbe, 0x6e, 0xc3, 0x40, 0x3d, 0x2a, 0x7b, 0xe0, 0xbd,
  0x52, 0x93, 0xdd, 0x3d, 0x95, 0x19, 0x37, 0x3e, 0x12, 0x43, 0x3e, 0xbe,
  0x0e, 0x42, 0x25, 0xbe, 0xb4, 0x12, 0x04, 0xbd, 0xcb, 0x7a, 0xd9, 0xbc,
  0x1d, 0xaa, 0x11, 0x3d, 0xe2, 0x5c, 0x19, 0xbe, 0xee, 0x76, 0xf9, 0xbd,
  0x6a, 0xf5, 0x86, 0xbd, 0xcb, 0xf1, 0xd1, 0x3d, 0x94, 0xe1, 0xad, 0x3d,
  0xa5, 0x07, 0xbd, 0x3a, 0xa7, 0x3d, 0x83, 0x3d, 0x8e, 0xf4, 0x08, 0xbe,
  0x6d, 0xbc, 0x4b, 0x3c, 0x11, 0x0f, 0x75, 0x3d, 0x4c, 0x15, 0x08, 0xbd,
  0x20, 0x91, 0x67, 0x3d, 0x87, 0xd6, 0x3c, 0x3d, 0x31, 0xfc, 0x8d, 0xbe,
  0x93, 0xbc, 0x04, 0x3e, 0x23, 0x22, 0xa9, 0x3c, 0x39, 0xef, 0x1a, 0xbd,
  0xc1, 0x73, 0x0d, 0xbd, 0xf4, 0xff, 0x8c, 0x3d, 0x9e, 0x42, 0x06, 0x3e,
  0xc7, 0x45, 0xae, 0x3d, 0x26, 0x9f, 0x07, 0xbd, 0x6e, 0x9c, 0x08, 0xbe,
  0xbd, 0xac, 0x57, 0xbe, 0x48, 0x71, 0x1e, 0xbe, 0xd9, 0xc6, 0x27, 0x3d,
  0x56, 0xb0, 0xdf, 0x3c, 0xb7, 0xfd, 0x4d, 0x3d, 0x59, 0x05, 0x9f, 0x3b,
  0x5d, 0xd3, 0xaa, 0xbc, 0x79, 0xda, 0xdf, 0x3d, 0xdd, 0x69, 0x78, 0x3e,
  0x85, 0x80, 0x3e, 0x3e, 0x62, 0x95, 0x5f, 0xbe, 0xe1, 0xc7, 0x74, 0x3c,
  0x45, 0x02, 0xa8, 0xbd, 0x9c, 0xb0, 0x93, 0xbc, 0x57, 0x68, 0x46, 0xbe,
  0x59, 0xa2, 0xd1, 0xbd, 0x52, 0x78, 0x03, 0xbe, 0x9d, 0xf1, 0xbc, 0x3d,
  0xb6, 0xab, 0x4a, 0xbb, 0x10, 0x0f, 0xbe, 0x3d, 0xa6, 0xb8, 0x7a, 0x3c,
  0xde, 0x43, 0x28, 0xbd, 0x5c, 0xfb, 0xac, 0xba, 0x29, 0xde, 0xa3, 0xbd,
  0x3d, 0x5b, 0x67, 0x3c, 0xa3, 0x71, 0xfe, 0x3d, 0xe5, 0x7d, 0x48, 0x3c,
  0x4c, 0x3a, 0x20, 0x3b, 0x3a, 0x69, 0xb6, 0x3d, 0xb4, 0xb7, 0x84, 0xbd,
  0xd2, 0xe1, 0x81, 0xbd, 0xb2, 0x80, 0xec, 0x3b, 0x27, 0xc7, 0x51, 0x3d,
  0x81, 0xce, 0x7e, 0xbd, 0x1f, 0x1b, 0x4b, 0xbd, 0xda, 0x98, 0x83, 0xbe,
  0x1a, 0xd0, 0x84, 0x3d, 0x24, 0xf1, 0x0c, 0xbd, 0x82, 0x69, 0x15, 0xbe,
  0x43, 0x5c, 0xbc, 0xbd, 0x36, 0xcd, 0xc4, 0x3c, 0x73, 0xe9, 0x02, 0x3e,
  0xd8, 0x04, 0x44, 0x3d, 0x55, 0xb0, 0x15, 0xbc, 0xa3, 0x5d, 0x05, 0xbe,
  0x35, 0xd7, 0xfe, 0x3d, 0xcd, 0xb4, 0x8e, 0xbb, 0x62, 0x8c, 0x26, 0xbe,
  0xf7, 0xfa, 0x0a, 0x3d, 0x23, 0x1e, 0x12, 0x3e, 0x01, 0x51, 0x67, 0xbd,
  0xb8, 0xeb, 0x83, 0xbd, 0xce, 0x9b, 0x34, 0xbe, 0x2c, 0x40, 0x33, 0xbe,
  0xad, 0x1f, 0x96, 0x3d, 0x09, 0xda, 0x5f, 0xbe, 0x05, 0xc8, 0x3f, 0xbe,
  0x3e, 0x6a, 0x38, 0x3e, 0x02, 0x5a, 0xb9, 0xbd, 0x12, 0xe8, 0xb9, 0xbb,
  0xfd, 0xb4, 0xa3, 0x3d, 0x74, 0x7b, 0x91, 0xbe, 0x77, 0xe3, 0xc8, 0xbd,
  0xa7, 0x2d, 0xd2, 0x3d, 0x7f, 0xe9, 0x84, 0x3d, 0x9e, 0xf8, 0x88, 0xbe,
  0x3c, 0x28, 0x59, 0x3d, 0x6a, 0x6e, 0xc5, 0xbc, 0x9c, 0x6c, 0xf6, 0x3d,
  0x9b, 0xf5, 0x31, 0xbd, 0xfa, 0x27, 0x2d, 0x3d, 0x70, 0x22, 0x1a, 0x3d,
  0xe8, 0x11, 0x1f, 0x3d, 0x84, 0x25, 0xb9, 0x3d, 0x8c, 0x4f, 0x62, 0xbb,
  0x2b, 0xea, 0x2d, 0xbe, 0xf8, 0xea, 0x0e, 0x3e, 0x6c, 0x6d, 0xcc, 0xbc,
  0xd8, 0x9b, 0xfe, 0x3d, 0x11, 0xad, 0x86, 0xbd, 0xe0, 0x11, 0xa8, 0xbd,
  0xed, 0xe7, 0x31, 0x3e, 0xe1, 0xd3, 0x8a, 0x3d, 0xac, 0xd8, 0x00, 0xbd,
  0xfd, 0x09, 0x4f, 0xbc, 0x81, 0x5e, 0x97, 0xbe, 0x0a, 0x5f, 0x28, 0xbe,
  0xae, 0x6c, 0xd3, 0x3d, 0xf6, 0x9e, 0x3d, 0x3c, 0xa1, 0xe5, 0x6c, 0xbd,
  0xbc, 0x03, 0xd9, 0xbd, 0x28, 0xfb, 0xda, 0x3c, 0x4d, 0x20, 0x44, 0xbc,
  0x5d, 0x97, 0xe7, 0xbd, 0xe1, 0xac, 0xdd, 0xbd, 0x6e, 0xd8, 0xf1, 0xbd,
  0xe1, 0xcc, 0xa9, 0x3d, 0x62, 0x8b, 0x7c, 0xbe, 0xe7, 0x43, 0x74, 0xbd,
  0xcc, 0xf6, 0x21, 0x3d, 0xa8, 0xc6, 0xab, 0x3d, 0x82, 0x62, 0x20, 0x3c,
  0x04, 0x4e, 0x56, 0x3b, 0x1f, 0xa5, 0x54, 0x3d, 0xc6, 0x63, 0x91, 0x3d,
  0xd3, 0x39, 0x83, 0x3d, 0xed, 0xb2, 0x2a, 0xbe, 0xac, 0x79, 0x17, 0x3d,
  0x49, 0xcb, 0xfa, 0xbc, 0xc1, 0x4e, 0x7e, 0xbe, 0x1b, 0xfc, 0xe3, 0x3c,
  0x37, 0x37, 0x02, 0x3d, 0xe2, 0xb3, 0x8c, 0xbc, 0x5b, 0x23, 0xaf, 0x3e,
  0x1e, 0xa4, 0x46, 0x3e, 0x7b, 0x75, 0xbc, 0xbe, 0x01, 0x45, 0x2f, 0x3e,
  0x9e, 0x2e, 0x01, 0xbe, 0x29, 0x04, 0x0f, 0x3b, 0xe6, 0xc9, 0x92, 0x3e,
  0xa5, 0xec, 0xf0, 0x3d, 0xbe, 0x72, 0x58, 0x3e, 0xc1, 0xf4, 0xd7, 0xbd,
  0x08, 0x89, 0xad, 0x3d, 0xbc, 0x6f, 0x2b, 0x3e, 0x99, 0xca, 0xb6, 0x3d,
  0xfe, 0x48, 0x05, 0xbe, 0x9c, 0x25, 0x2d, 0xbe, 0x12, 0xbe, 0x94, 0x3b,
  0x91, 0x00, 0xe1, 0xbc, 0x3e, 0xfd, 0x12, 0xbe, 0x91, 0xe3, 0x73, 0xbd,
  0x2b, 0x99, 0x6c, 0xbb, 0xd0, 0x03, 0xcb, 0xbd, 0x70, 0xab, 0x09, 0xbe,
  0x8b, 0xfd, 0xfb, 0xbc, 0x0d, 0xb9, 0x1a, 0x3c, 0x99, 0x5f, 0x43, 0x3e,
  0x04, 0x40, 0x2f, 0xbe, 0xdd, 0xd1, 0x95, 0x3b, 0x43, 0x78, 0x5c, 0x3d,
  0x18, 0x88, 0xc3, 0xbd, 0xc4, 0x9a, 0x55, 0xbc, 0x37, 0x4f, 0x29, 0xbd,
  0x95, 0xab, 0x1e, 0x3d, 0x9a, 0xea, 0x4f, 0x3e, 0x1b, 0xfa, 0x56, 0x3d,
  0xa4, 0xbf, 0xf6, 0x3c, 0xe4, 0xb6, 0x70, 0x3d, 0xbe, 0x37, 0x68, 0xbd,
  0x54, 0x2f, 0x27, 0x3d, 0xf6, 0x48, 0xa4, 0xbd, 0x30, 0x5d, 0x06, 0xbe,
  0x0d, 0x67, 0x08, 0x3e, 0x5c, 0xd0, 0xf2, 0x3d, 0xd8, 0xe6, 0x6d, 0x3d,
  0x72, 0x29, 0xe2, 0x3d, 0xc5, 0xaa, 0xc7, 0x3a, 0x05, 0xb9, 0x1f, 0x3e,
  0x40, 0x8e, 0xb2, 0x3d, 0x53, 0xac, 0x14, 0x3e, 0xf6, 0x32, 0x25, 0xbb,
  0xdd, 0x49, 0x7d, 0x3d, 0x09, 0x7c, 0x53, 0xbd, 0xcc, 0x71, 0xd3, 0xbd,
  0x76, 0x0c, 0x8e, 0x3c, 0x68, 0x9e, 0x56, 0xbe, 0x77, 0x86, 0x41, 0xbd,
  0x8b, 0x0d, 0x0c, 0xbd, 0x3d, 0xc7, 0x08, 0xbc, 0x8d, 0x9f, 0x14, 0x3e,
  0x36, 0x11, 0xd4, 0xbd, 0xe7, 0x2b, 0xb6, 0x3d, 0x76, 0xb2, 0xf5, 0xbd,
  0xc8, 0xbc, 0x55, 0x3d, 0x3c, 0x3f, 0xc5, 0xbd, 0x2c, 0x6c, 0xf1, 0xbd,
  0x3a, 0x04, 0xb3, 0xbb, 0x53, 0x1c, 0x28, 0x3e, 0x55, 0xfe, 0x66, 0x3c,
  0x46, 0x70, 0x39, 0x3e, 0x59, 0x64, 0x99, 0xbd, 0x9a, 0x6b, 0xa1, 0xbd,
  0xa7, 0xe1, 0x91, 0xbd, 0x8e, 0xc6, 0x23, 0xbe, 0x3d, 0x96, 0xa1, 0x3d,
  0xa8, 0x04, 0xe2, 0x3c, 0xec, 0xbd, 0xfb, 0x3c, 0xd4, 0x15, 0x46, 0xbd,
  0x4d, 0x10, 0x2f, 0x3e, 0x1d, 0xa1, 0x0e, 0xbd, 0xc9, 0x9c, 0xe6, 0x3b,
  0x73, 0x76, 0x44, 0x3e, 0x9b, 0x59, 0x7e, 0xbd, 0xc9, 0xc0, 0xd4, 0xbd,
  0xa0, 0x4b, 0xfd, 0x3d, 0x4f, 0xf5, 0x4c, 0xbe, 0x48, 0x7e, 0xe6, 0xbb,
  0x5c, 0xb3, 0xf6, 0xbd, 0xdd, 0xda, 0x08, 0xbe, 0xb0, 0x84, 0x5a, 0xbd,
  0x82, 0x7f, 0x5e, 0x3d, 0xb1, 0xf5, 0x97, 0x3c, 0x59, 0x77, 0x97, 0xbe,
  0x6e, 0xef, 0xb0, 0x3c, 0x73, 0x7c, 0x35, 0x3e, 0xeb, 0x7a, 0x2b, 0x3e,
  0x59, 0xc8, 0x93, 0x3d, 0x06, 0x53, 0x42, 0x3e, 0x71, 0x8c, 0x17, 0xbc,
  0x29, 0x63, 0x39, 0xbe, 0x5f, 0x7f, 0x54, 0xbb, 0x1d, 0xaf, 0x43, 0x3d,
  0x0f, 0x73, 0xfb, 0x3c, 0x06, 0x68, 0x71, 0x3d, 0x31, 0x20, 0x52, 0x3e,
  0x66, 0x78, 0xa0, 0x3a, 0x77, 0x12, 0x12, 0xbd, 0x8d, 0x4a, 0x38, 0x3e,
  0x10, 0xf3, 0xe2, 0x3d, 0x8c, 0xd5, 0x66, 0x3d, 0x34, 0xab, 0xc2, 0xbd,
  0x09, 0x29, 0xad, 0xbc, 0x8d, 0xac, 0x14, 0xbe, 0x96, 0x96, 0xfb, 0xbc,
  0x7a, 0x0f, 0x64, 0x3d, 0x0d, 0x70, 0x85, 0x3d, 0x46, 0x3a, 0xc8, 0x3d,
  0x3e, 0x05, 0xfd, 0x3d, 0x8f, 0xdd, 0xac, 0xbd, 0x93, 0x16, 0x20, 0xbe,
  0x9a, 0x14, 0x68, 0x3e, 0x6b, 0x0d, 0x3d, 0x3e, 0xfe, 0x2c, 0xef, 0xbd,
  0xf1, 0xc8, 0x2e, 0xbc, 0x06, 0x6a, 0x8c, 0xbd, 0x4a, 0x0a, 0xc9, 0xbd,
  0x68, 0x40, 0x95, 0x3d, 0x83, 0x94, 0xa6, 0x3c, 0x58, 0xd3, 0xe9, 0xbd,
  0xb3, 0xd9, 0xb5, 0xbd, 0x4c, 0x3b, 0x28, 0x3e, 0xff, 0x93, 0x09, 0x3d,
  0x10, 0x4a, 0xd9, 0x3d, 0xf3, 0x70, 0xe7, 0xbd, 0x21, 0xf2, 0x18, 0xbd,
  0x92, 0xc8, 0xd5, 0x3d, 0x76, 0x71, 0xdf, 0xbd, 0x1c, 0xc2, 0x59, 0x3e,
  0x5b, 0x54, 0x46, 0x3d, 0x64, 0x52, 0x3d, 0xbd, 0x82, 0x73, 0x1c, 0x3d,
  0x54, 0x62, 0xae, 0xbe, 0xb3, 0x92, 0x09, 0xbe, 0x21, 0x83, 0x04, 0xbe,
  0x53, 0x1f, 0x97, 0x3d, 0x7b, 0x28, 0xe2, 0xbd, 0x4b, 0x86, 0xb5, 0xbd,
  0x1b, 0xfd, 0x9f, 0xbd, 0x47, 0xea, 0x5d, 0x3c, 0x2c, 0xd0, 0x26, 0x3e,
  0xee, 0x2f, 0xf8, 0xbd, 0x3d, 0x1b, 0xa7, 0xbc, 0x69, 0xb3, 0x63, 0x3c,
  0x07, 0x83, 0x84, 0xbe, 0x08, 0xd3, 0x57, 0xbd, 0x7b, 0xa5, 0xdc, 0x3d,
  0xc6, 0x46, 0x9b, 0xbd, 0x06, 0xe1, 0xcc, 0xbc, 0xa5, 0x97, 0x99, 0x3e,
  0x59, 0x06, 0x0d, 0x3e, 0x68, 0xf6, 0x87, 0xbb, 0x66, 0x25, 0x9a, 0xbc,
  0x1e, 0x24, 0x76, 0xbd, 0x2f, 0xa3, 0x26, 0xbe, 0x46, 0xe9, 0x56, 0x3e,
  0xe7, 0x91, 0xbf, 0xbc, 0x7e, 0x27, 0x64, 0x3e, 0x94, 0xf6, 0x14, 0xbd,
  0x40, 0xe0, 0x00, 0xbe, 0x7d, 0x75, 0x2e, 0xbe, 0xed, 0xce, 0x8b, 0x3c,
  0xf3, 0x8d, 0x1d, 0x3c, 0x0c, 0x0a, 0xa1, 0xbd, 0xd4, 0x49, 0x8e, 0x3b,
  0x05, 0xa9, 0x49, 0xbd, 0x87, 0x08, 0xac, 0xbd, 0x03, 0x76, 0xa1, 0x3d,
  0x81, 0x1a, 0x96, 0x3d, 0xa4, 0x13, 0x16, 0x3e, 0x39, 0x7d, 0x41, 0xbe,
  0xbe, 0x37, 0x0a, 0xbe, 0xea, 0x96, 0x14, 0x3e, 0x22, 0xd9, 0x87, 0x3b,
  0x9f, 0x74, 0x6c, 0x3d, 0x4b, 0xf1, 0xe3, 0xbd, 0x4d, 0xa7, 0xde, 0xbd,
  0x55, 0x99, 0x9c, 0xbe, 0x65, 0xc3, 0xac, 0xb9, 0xc3, 0x9e, 0xc3, 0x3d,
  0xd7, 0xd4, 0xa4, 0xbc, 0xdd, 0x11, 0x9c, 0xbd, 0x31, 0xe7, 0xdd, 0x3d,
  0x5b, 0x25, 0xdc, 0x3a, 0x86, 0x85, 0x86, 0xbc, 0x72, 0xbf, 0x0d, 0xbe,
  0x8e, 0xde, 0xd9, 0xbd, 0xd6, 0x2d, 0x1d, 0xbe, 0x12, 0x61, 0x09, 0x3e,
  0xb4, 0xab, 0x0d, 0x3c, 0x71, 0xcc, 0xd4, 0x39, 0x26, 0xac, 0x38, 0x3e,
  0x97, 0x12, 0x24, 0xbd, 0x5d, 0x6f, 0x19, 0x3d, 0xca, 0xab, 0x95, 0xbd,
  0x8d, 0xd8, 0x1a, 0xbe, 0xec, 0x68, 0x89, 0xbd, 0xbb, 0x8b, 0x9b, 0x3d,
  0xdc, 0x18, 0x25, 0xbe, 0x4e, 0xc9, 0x83, 0xbd, 0xc8, 0x3d, 0x45, 0x3e,
  0xde, 0x04, 0xf5, 0x3b, 0x29, 0xbd, 0xb6, 0x3d, 0x17, 0x7a, 0x88, 0x3c,
  0x11, 0xfb, 0xcf, 0xbd, 0x3f, 0x82, 0xe4, 0xbc, 0x90, 0xcf, 0xf2, 0xbd,
  0x8e, 0x8b, 0x0a, 0x3e, 0xd3, 0x34, 0x6c, 0xbd, 0x98, 0x2a, 0x40, 0xbd,
  0xf0, 0xdf, 0x88, 0xba, 0x1b, 0x80, 0xd1, 0xbd, 0xcd, 0xcf, 0xbd, 0x3d,
  0x81, 0xd8, 0x1d, 0xbe, 0x11, 0xbc, 0xc5, 0x3d, 0x41, 0x37, 0xd0, 0x3d,
  0x3c, 0x29, 0x50, 0x3e, 0x3a, 0xe8, 0xbd, 0x3d, 0xc0, 0x30, 0x8d, 0x3c,
  0x36, 0x01, 0xfd, 0x3c, 0x5f, 0x33, 0x9c, 0x3d, 0x83, 0x59, 0xa7, 0xbd,
  0x00, 0x49, 0x36, 0xbe, 0xf2, 0x5f, 0x44, 0xbe, 0x83, 0xf0, 0xfd, 0xbc,
  0x5a, 0xb8, 0xee, 0x3d, 0xde, 0x70, 0x99, 0xbe, 0x57, 0xd6, 0x3c, 0x3e,
